{"\u010a": 9956939, "_": 18659463, "ST": 4987409, "ART": 5712051, "ICLE": 731681, "\u00c3": 21289, "\u0123": 26075, "gi": 4458, "\u0120Sz": 6108, "al": 251207, "\u00c3\u00b3": 44088, "ki": 29325, "S": 2297023, "ECTION": 2014190, "Life": 25061, "PAR": 2232950, "AG": 2238184, "R": 2365972, "APH": 2232744, "She": 40875, "\u0120started": 112951, "\u0120singing": 16935, "\u0120as": 2765169, "\u0120a": 7034238, "\u0120toddler": 420, ",": 20538963, "\u0120considering": 6638, "\u0120M": 271321, "\u00c3\u00a1": 79140, "r": 152384, "ta": 21023, "\u0120Seb": 949, "esty": 933, "\u00c3\u00a9n": 7762, "\u0120role": 106758, "\u0120model": 47173, ".": 14570077, "\u0120Her": 74253, "\u0120musical": 39013, "\u0120background": 18358, "\u0120is": 2757099, "\u0120traditional": 45235, "\u0120folk": 13746, "\u0120music": 151093, ";": 541013, "\u0120she": 454187, "\u0120first": 793841, "\u0120won": 173252, "\u0120recognition": 19456, "\u0120for": 2999376, "\u0120with": 2655978, "\u0120\u00c3\u0138": 4260, "kr": 612, "\u00c3\u00b6": 40081, "s": 860711, "\u0120in": 8973945, "\u0120style": 58852, "\u0120and": 10775104, "\u0120B": 362578, "esh": 12664, "\u0120o": 30642, "\u0120dro": 2371, "M": 166981, "\u0120Balk": 2807, "an": 311700, "\u0120gy": 3336, "psy": 2403, "\u0120brass": 3826, "\u0120band": 128925, "\u0120With": 56408, "\u0120these": 192018, "\u0120en": 24039, "semb": 3289, "les": 55896, "\u0120toured": 11676, "\u0120around": 152508, "\u0120the": 22463679, "\u0120world": 127550, "\u0120from": 1835842, "\u0120Montreal": 12464, "\u0120Jazz": 7890, "\u0120Festival": 43981, "\u0120through": 262409, "\u0120Gl": 20421, "aston": 2790, "bury": 26359, "\u0120to": 7886071, "\u0120Th": 53026, "\u00c3\u00a9": 137245, "atre": 2836, "\u0120de": 208703, "\u0120la": 28111, "\u0120V": 201221, "ille": 28067, "\u0120Paris": 51107, "\u0120New": 350194, "\u0120York": 169013, "\u0120Beijing": 8501, "._": 2438839, "NEW": 3237228, "LINE": 3237172, "Since": 22242, "\u01202005": 89633, "\u0120began": 199525, "\u0120pursue": 10896, "\u0120her": 689181, "\u0120solo": 27081, "\u0120career": 191660, "\u0120explore": 6240, "\u0120various": 97454, "\u0120genres": 4119, "\u0120such": 310210, "\u0120jazz": 13551, "\u0120th": 12977, "irt": 6060, "ies": 86786, "\u0120ball": 26952, "ads": 10341, "\u0120or": 804489, "\u0120children": 126859, "'s": 2330126, "\u0120songs": 56001, "Until": 4132, "\u0120now": 145607, "\u0120three": 310521, "\u0120of": 12187709, "\u0120six": 100261, "\u0120released": 183087, "\u0120albums": 18979, "\u0120were": 1272042, "\u0120awarded": 55780, "\u0120Album": 10016, "\u0120Year": 35086, "\u0120Prize": 18218, "\u0120(": 2755086, "MA": 11054, "H": 132800, "AS": 18969, "Z": 46438, "\u0120F": 223261, "on": 273048, "ogram": 2761, "\u0120Award": 64444, ")": 1489735, "\u0120records": 30421, "\u0120categories": 8580, "\"": 791943, "When": 35081, "\u0120I": 334127, "\u0120sing": 8822, "\u0120it": 1054091, "\u0120not": 689058, "\u0120important": 80669, "\u0120whether": 32869, "\u0120any": 156479, "\u0120other": 465465, "\u0120kind": 22300, "\",": 224131, "\u0120has": 822583, "\u0120said": 154232, "\u0120\"": 1673059, "I": 132642, "\u0120feel": 14389, "\u0120if": 123043, "'m": 15080, "\u0120swimming": 9403, "\u0120The": 2459119, "\u0120like": 130262, "\u0120water": 117611, "\u0120air": 77221, "\u0120fly": 12334, ".\"": 303549, "\u0120trained": 18274, "\u0120Kod": 2848, "ly": 135067, "\u0120method": 27370, "\u0120Many": 34300, "\u0120projects": 31746, "\u0120are": 1011303, "\u0120inspired": 22864, "\u0120by": 2416246, "\u0120poetry": 16932, "\u0120be": 956084, "Sun": 3411, "set": 5853, "\u0120Rust": 1891, "\u0120It": 471128, "\u0120Dusk": 271, "\u0120on": 2724002, "\u0120L": 268196, "ament": 8751, "2005": 10294, "),": 618207, "\u0120Kar": 19888, "dy": 7884, "\u0120album": 165217, "A": 295195, "gy": 15654, "\u0120Mu": 17018, "z": 199061, "ik": 78168, "l": 176760, "\u01202008": 128889, ").": 538634, "\u0120also": 860642, "\u0120performed": 67463, "\u0120at": 1911846, "\u0120numerous": 42264, "\u0120concerts": 11376, "\u00c3\u012b": 5809, "mile": 7882, "\u0120Dub": 5765, "net": 12291, "18": 127727, "\u0120October": 168394, "\u012018": 556904, "83": 20608, "\u0120-": 129674, "\u01201940": 33606, "\u0120was": 4625610, "\u0120French": 111822, "\u0120balloon": 2459, "ist": 177311, "\u0120active": 49140, "\u01201908": 12910, "\u01201913": 13576, "\u0120He": 890302, "\u0120participated": 29609, "\u01201909": 12095, "\u01201911": 13547, "\u0120Gordon": 14076, "\u0120Bennett": 6329, "\u0120Cup": 83749, "ing": 296394, "\u0120member": 138608, "\u0120A": 462434, "ro": 91945, "-": 3894476, "Club": 9197, "\u0120France": 75168, "\u0120La": 57515, "\u0120Grande": 5260, "\u0120Med": 13013, "ial": 41184, "le": 155184, "\u01201912": 14831, "\u0120holds": 20008, "d": 136392, "ration": 12375, "ron": 37238, "aut": 19597, "ique": 18427, "\u0120International": 88754, "e": 247161, "\u0120record": 94588, "19": 155490, "13": 42768, "Bi": 37974, "ography": 80372, "He": 150643, "\u0120born": 142196, "\u0120win": 84231, "emaker": 2476, "\u0120In": 938732, "\u01201910": 16124, "\u0120he": 1533734, "\u0120flew": 9327, "\u0120over": 386662, "\u0120his": 1821654, "\u0120Tell": 3347, "ier": 71235, "\u0120brothers": 23815, "\u0120aircraft": 55265, "\u0120Ju": 6996, "vis": 7013, "y": 277312, "sur": 6224, "Or": 8550, "ge": 43605, "\u0120field": 69667, "\u0120made": 335182, "\u0120landing": 14145, "\u0120Bo": 23762, "is": 218905, "oul": 20582, "og": 46365, "ne": 103866, "\u0120_": 184831, "\u0120helped": 40524, "\u0120form": 111500, "\u0120professional": 52474, "\u0120baseball": 16301, "\u0120league": 58817, "\u0120Baseball": 9242, "\u0120Union": 69891, "\u0120Gill": 8889, "i": 422668, "50": 33453, "\u00e2\u0122\u0135": 523483, "24": 30092, "\u0120Swiss": 14263, "\u0120artist": 40527, "\u0120archaeological": 7269, "\u0120drafts": 1539, "man": 172670, "\u0120best": 96682, "\u0120known": 230218, "\u0120reconstruct": 2221, "ions": 37361, "\u0120My": 34565, "c": 128754, "en": 267369, "ae": 37627, "\u0120Min": 23421, "oan": 4610, "\u0120artifacts": 4922, "\u0120Bronze": 4392, "\u0120Age": 13949, "Education": 18728, "\u0120experience": 37634, "\u0120studied": 47626, "\u0120trade": 41757, "\u0120school": 224837, "\u0120Bas": 14666, "el": 148338, "72": 21760, "74": 20146, "\u0120Art": 65166, "\u0120Academy": 54034, "\u0120Munich": 8914, "75": 27381, "76": 23293, "\u0120finally": 37906, "\u0120studio": 38074, "\u0120Is": 35150, "id": 93935, "ore": 53972, "\u0120P": 279888, "ils": 13869, "77": 20661, "\u0120relocated": 11163, "\u0120Athens": 8194, "\u0120where": 362337, "\u0120an": 1306281, "\u0120who": 640438, "\u0120produced": 84163, "\u0120drawings": 6368, "\u0120Greek": 37584, "\u0120foreign": 34182, "\u0120excav": 8215, "ators": 20731, "\u0120designed": 62046, "\u0120commemor": 7815, "ative": 28405, "\u0120postage": 1318, "\u0120stamps": 4482, "\u0120inaugural": 9134, "\u0120Olympic": 18395, "\u0120Games": 25091, "96": 15173, "\u01201906": 12460, "\u0120served": 143058, "\u0120art": 75917, "\u0120tutor": 2478, "\u0120royal": 20578, "\u0120family": 187685, "\u0120George": 73766, "Professional": 6959, "\u0120life": 230724, "\u0120worked": 105439, "\u0120illust": 3080, "rator": 3835, "\u0120Hein": 7001, "rich": 19560, "\u0120Sch": 49262, "li": 19826, "em": 72513, "ann": 39788, "\u0120gained": 27865, "\u0120reputation": 14099, "\u0120being": 277811, "\u0120widely": 26525, "\u0120recognized": 23314, "\u0120working": 83102, "\u0120Greece": 13773, "\u0120time": 444842, "\u0120This": 306144, "\u0120acquire": 6598, "\u0120position": 86906, "\u0120assisting": 3325, "\u0120fres": 3763, "co": 60462, "\u0120excavation": 2865, "\u0120Tir": 5652, "yn": 26689, "12": 55767, "\u0120became": 315267, "\u0120chief": 34064, "\u0120restore": 6944, "\u0120Arthur": 18246, "\u0120Evans": 9658, "\u0120Palace": 14421, "os": 160860, "\u0120Kn": 10590, "oss": 19176, "\u0120Cre": 9125, "te": 67194, "\u0120For": 104096, "\u0120decades": 18525, "\u0120son": 126312, "\u0120predecessor": 7448, "\u0120named": 156208, "\u0120\u00c3\u012b": 11375, "\u0120creating": 22678, "\u0120reprodu": 1841, "ctions": 4475, "es": 231059, "rons": 7789, "\u0120can": 314962, "\u0120contributing": 6799, "\u0120many": 258475, "\u0120illustrations": 4425, "\u0120Evan": 2416, "\u0120four": 193713, "volume": 2398, "\u0120book": 114608, "\u0120Some": 51736, "\u0120most": 293607, "\u0120famous": 37656, "\u0120include": 115700, "\u0120Priest": 3297, "\u0120King": 85548, "\u0120Ladies": 3352, "\u0120Blue": 24533, "\u0120painting": 25085, "\u0120throne": 10256, "\u0120room": 40541, "\u0120formed": 74620, "\u0120business": 79843, "\u0120E": 175287, "\u0120&": 124458, "\u0120Son": 13900, "\u0120they": 509737, "\u0120sold": 71673, "\u0120original": 111236, "\u0120commissioned": 20698, "col": 10284, "ors": 71713, "\u0120directly": 32198, "\u0120originals": 1057, "\u0120Sk": 22416, "ou": 61245, "fa": 5292, "\u0120Street": 84425, "\u0120created": 92587, "\u0120repl": 2384, "icas": 1494, "\u0120metal": 23757, "\u0120based": 121610, "\u0120m": 78144, "olds": 5310, "\u0120masks": 1908, "\u0120weapons": 19511, "\u0120vessels": 12950, "\u0120They": 176458, "\u0120full": 82613, "scale": 9011, "\u0120copies": 19595, "color": 2214, "\u0120paper": 30025, "dimensional": 4931, "\u0120plaster": 2657, "\u0120By": 77105, "\u0120had": 977606, "\u0120catalog": 5044, "\u0120antiqu": 2483, "ities": 28548, "\u0120consisting": 15407, "\u0120144": 1850, "\u0120pieces": 19660, "\u0120that": 2239822, "\u0120could": 168898, "\u0120manufactured": 8155, "\u0120Germany": 63659, "\u0120W": 207057, "urt": 9456, "burg": 39643, "\u0120Electro": 1185, "\u0120Plate": 5240, "\u0120Company": 69259, "\u0120re": 120041, "worked": 1836, "\u0120taken": 69822, "\u0120recreate": 1030, "\u0120object": 15523, "\u0120its": 653843, "\u0120und": 13206, "am": 168418, "aged": 13107, "\u0120two": 581219, "\u0120well": 271398, "known": 18759, "\u0120\u00e2\u0122": 110226, "\u013e": 99367, "Mask": 163, "\u0120Ag": 25450, "non": 5079, "\u00e2\u0122": 321935, "\u013f": 97996, "\u0120Sh": 94476, "aft": 2855, "\u0120Grave": 1467, "\u0120Circle": 6067, "\u0120one": 626330, "\u0120which": 1109758, "\u0120represented": 36220, "\u0120how": 73255, "\u0120mask": 4428, "\u0120looked": 9759, "\u0120when": 405554, "\u0120found": 171038, "\u0120restored": 15285, "\u0120look": 23152, "\u0120believed": 40256, "\u0120appearance": 40910, "Crit": 3963, "ic": 176549, "isms": 4375, "The": 1143796, "\u0120work": 252338, "\u0120attributed": 11527, "\u0120influencing": 1296, "\u0120spread": 25157, "\u0120Ae": 1917, "\u0120impression": 5325, "\u0120culture": 43922, "\u0120but": 681009, "\u0120validity": 2769, "\u0120long": 142534, "\u0120been": 579794, "\u0120debated": 2609, "\u0120depict": 2868, "\u0120rulers": 5073, "\u0120ancient": 29314, "\u0120pie": 1666, "cing": 4461, "\u0120fragments": 4821, "\u0120together": 83982, "\u0120scrutin": 522, "ized": 56307, "\u0120containing": 17447, "\u0120contemporary": 23749, "\u0120influences": 9536, "\u0120allegedly": 7751, "\u0120much": 113029, "\u0120different": 110927, "\u0120Other": 38600, "\u0120fall": 32775, "\u0120under": 298792, "\u0120similar": 73075, "\u0120scrutiny": 1992, "\u0120Bull": 9798, "\u0120Le": 90113, "apers": 2189, "\u0120may": 170161, "\u0120have": 623542, "\u0120given": 93610, "\u0120addition": 75342, "\u0120modern": 69186, "\u0120border": 28079, "\u0120reconstruction": 6082, "\u0120S": 293780, "aff": 17963, "\u0120Gat": 2200, "herer": 750, "\u0120proven": 5184, "\u0120incorrect": 2394, "\u0120originally": 55697, "\u0120depicted": 8836, "\u0120monkey": 1445, "\u0120boy": 18615, "\u0120rest": 46726, "or": 222122, "ations": 67191, "\u0120matter": 20863, "\u0120ongoing": 9460, "\u0120research": 78191, "\u0120involved": 64062, "gery": 2218, "\u0120producing": 18150, "\u0120f": 52617, "akes": 14426, "\u0120their": 748838, "\u0120assistants": 2045, "\u0120suspicion": 3053, "\u0120ch": 33861, "ry": 62552, "se": 64818, "ph": 32944, "antine": 1589, "\u0120snake": 3176, "\u0120goddess": 4883, "\u0120Ring": 8009, "\u0120Nest": 2860, "\u0120Ph": 33204, "a": 557526, "\u0120disc": 12504, "Death": 15092, "\u0120acknowled": 140, "gements": 498, "\u0120museums": 4517, "\u0120private": 59558, "\u0120collections": 11806, "\u0120all": 412628, "\u0120up": 355149, "\u0120until": 240548, "\u0120death": 130347, "\u01201939": 23099, "\u0120Since": 37823, "\u0120then": 331659, "\u0120National": 178675, "\u0120Museum": 49673, "\u0120gallery": 9093, "\u0120devoted": 9643, "\u013b": 239199, "\u0120Despite": 27471, "\u0120questions": 13903, "\u0120remain": 27557, "\u0120valuable": 7730, "\u0120representations": 2665, "\u0120artistic": 12666, "\u0120achievements": 5814, "pin": 6856, "ay": 108075, "Se": 8880, "ine": 117122, "History": 125355, "On": 200175, "\u01207": 149045, "\u0120August": 170094, "\u01201850": 9800, "\u0120part": 274352, "\u0120territory": 25674, "\u0120detached": 3048, "\u0120merged": 16437, "\u0120De": 69784, "u": 205173, "il": 114298, "la": 30167, "B": 196471, "arre": 4358, "\u0120Saint": 40016, "Gr": 6671, "at": 173302, "ien": 26263, "\u0120So": 26158, "isy": 1754, "ous": 49282, "Mont": 4642, "more": 19079, "n": 179703, "cy": 18089, "\u0120create": 42211, "\u0120commun": 7360, "\u0120En": 29939, "gh": 27602, "ains": 17941, "Franc": 3226, "\u0120Duke": 24220, "\u0120C": 275006, "iz": 50069, "\u0120May": 193940, "22": 28573, "\u0120\u00e2\u0122\u0135": 160213, "\u012017": 235463, "\u0120April": 163935, "\u01201902": 11786, "\u0120king": 34915, "\u0120cons": 13026, "ort": 30712, "\u0120Spain": 32145, "\u0120took": 167614, "\u0120residence": 17219, "\u00c3\u00a2": 15590, "au": 89139, "81": 21239, "\u0120castle": 21150, "\u0120currently": 44803, "\u0120city": 180995, "\u0120hall": 20922, "From": 33465, "\u0120home": 152267, "\u0120Ep": 8701, "in": 365077, "\u0120Studios": 12217, "Trans": 12077, "port": 26388, "\u0120station": 126339, "\u0120R": 264821, "ER": 6128, "\u0120line": 128451, "V": 99187, "illet": 1116, "ane": 42259, "use": 20845, "\u0120Trans": 16879, "\u0120Nord": 6573, "\u0120suburban": 4656, "\u0120rail": 22803, "Charles": 6912, "\u0120Gaul": 3919, "\u0120Airport": 20566, "\u0120located": 118944, "\u0120about": 313117, "\u012013": 119141, "\u00c2\u0142": 700761, "km": 131311, "8": 104321, "1": 247440, "mi": 46565, "\u0120away": 71690, "\u0135": 13172, "cs": 4008, "\u0120\u00c3": 27086, "p": 104897, "\u0120Rom": 11354, "anes": 10633, "que": 32241, "\u0120church": 88671, "\u0120built": 140763, "th": 438635, "\u0120century": 142395, "\u0120Pre": 19813, "mon": 14001, "str": 14668, "ens": 59749, "ians": 48676, "\u0120use": 180876, "\u0120monastery": 10056, "\u0120During": 97924, "\u012016": 192023, "\u0120village": 82083, "\u0120reformed": 3767, "\u0120structure": 45919, "\u0120public": 143900, "\u0120place": 153237, "\u0120worship": 8953, "One": 24112, "\u0120beautiful": 11294, "\u0120churches": 15984, "\u0120preserved": 11189, "\u0120Hungary": 10325, "\u01203": 243202, "\u0120n": 46065, "aves": 7879, "\u0120cross": 33375, "ave": 19747, "\u0120western": 35710, "\u0120towers": 6274, "\u0120following": 148065, "\u0120common": 66725, "\u0120Hungarian": 10263, "\u0120medieval": 12195, "\u0120architecture": 20066, "\u0120": 1616175, "\u0120renewed": 6870, "\u012020": 147730, "\u0120according": 42466, "\u0120plans": 35782, "day": 35942, "\u0120architect": 18716, "hu": 11967, ":": 626176, "F": 139653, "o": 359228, "erk": 4208, "\u0120Ern": 1175, "\u00c5": 40909, "\u0133": 16419, "\u0120interesting": 7495, "\u0120only": 344818, "\u0120mur": 3179, "als": 59933, "\u0120Lad": 4025, "isl": 9860, "aus": 12977, "\u0120Legendary": 567, "\u0120painted": 16712, "\u0120northern": 42272, "\u0120walls": 21152, "N": 124136, "umerous": 1098, "\u0120houses": 34836, "\u0120structures": 19161, "\u0120vicinity": 5782, "\u0120recall": 3713, "\u0120times": 85356, "\u0120age": 147484, "\u0120including": 258151, "\u0120tools": 11531, "\u0120furniture": 6316, "\u0120objects": 16119, "\u0120interest": 51449, "Bird": 924, "\u0120observ": 3403, "atory": 23544, "standing": 10246, "\u0120bird": 9701, "ai": 74073, "\u0120Mad": 24712, "v": 110631, "\u0120nearby": 33505, "\u013a": 37278, "vind": 661, "\u0120St": 230354, "fl": 11081, "\u0120debut": 73211, "\u0120Rosen": 4461, "borg": 5551, "\u01201999": 55080, "\u01202000": 83407, "\u0120loan": 23799, "ed": 273207, "\u0120out": 346899, "\u00c3\u00a5": 10520, "sen": 12556, "\u01202001": 64354, "\u0120Moss": 4156, "\u0120500": 23966, "000": 238922, "\u0120k": 47623, "\u0120January": 168833, "\u01202003": 69453, "\u0120returned": 105320, "\u0120NO": 2379, "K": 145034, "\u01201": 353540, "\u0120came": 112461, "\u0120free": 63965, "\u0120transfer": 22208, "\u0120Str": 16420, "\u00c3\u00b8": 21306, "msg": 151, "od": 69714, "\u0120before": 252967, "\u01202009": 129614, "\u0120season": 264264, "\u0120Winning": 892, "\u0120Norwegian": 15470, "\u0120club": 122636, "\u01202011": 138205, "\u0120El": 59190, "ites": 21798, "er": 289155, "\u01202013": 128448, "\u0120stepped": 5748, "\u0120down": 117421, "\u0120play": 117373, "\u0120Ran": 5680, "heim": 16390, "\u01202017": 107274, "\u0120However": 155529, "\u0120achieved": 21578, "\u0120promotion": 21788, "\u0120OB": 554, "OS": 10484, "liga": 3425, "offs": 4737, "\u0120same": 199138, "\u0120year": 281696, "\u0120played": 178756, "\u0120top": 97790, "\u0120division": 44194, "\u0120since": 162779, "\u01202018": 99274, "International": 14878, "St": 35614, "\u0120caps": 5340, "\u0120national": 108690, "\u0120team": 238622, "\u0120His": 163316, "\u0120pre": 52652, "season": 12149, "\u0120tournament": 33508, "\u0120On": 216673, "\u012010": 178176, "\u01202014": 128076, "\u0120sub": 47387, "bed": 12675, "\u0120into": 461310, "\u0120World": 190719, "\u0120qualifying": 11290, "\u0120match": 79292, "\u0120versus": 10433, "\u0120Slovenia": 2757, "\u013c": 12713, "lt": 3477, "im": 87255, "as": 240029, "\u0120Not": 18540, "ias": 18696, "ister": 20667, "\u0120publications": 12686, "In": 705780, "\u01201956": 21648, "\u0120Cap": 13122, "iles": 17075, "\u0120Ay": 11899, "ala": 36649, "\u0120acquired": 36900, "\u0120newspaper": 31819, "\u0120Es": 10562, "fer": 12111, "\u01201966": 25382, "\u0120February": 138102, "\u01201958": 21195, "\u0120founded": 77175, "\u0120evening": 14735, "\u0120Mund": 3167, "\u01201959": 21447, "\u0120bought": 24822, "\u0120magazine": 43747, "lite": 925, "\u01201962": 23271, "\u0120magazines": 9294, "\u0120Venezuela": 6681, "\u0120Gr": 29434, "f": 112641, "ica": 43779, "gin": 6384, "the": 140422, "\u0120latter": 35877, "\u0120folded": 4097, ");": 33096, "\u0120Di": 28239, "ario": 7515, "\u0120Cr": 15425, "\u00c3\u0143": 45241, "t": 173641, "\u0120Mar": 70841, "aca": 5681, "ibo": 2448, "\u0120closed": 43794, "\u01201990": 68456, "\u01201968": 28982, "\u0120Sup": 3259, "lement": 3791, "\u0120Cultural": 8178, "\u01201969": 27931, "\u0120sports": 32402, "\u0120daily": 20961, "\u0120Extra": 2444, "which": 25564, "\u0120later": 323558, "\u01201970": 60084, "\u0120Domin": 4135, "ical": 56544, "\u0120Sunday": 18928, "\u0120mag": 6260, "az": 57116, "\u0120Hip": 2654, "rom": 25741, "\u01201972": 29770, "\u0120Ken": 14529, "fold": 4526, "\u0120Kab": 4146, "\u0120Al": 107322, "arma": 5234, "\u01201973": 27889, "\u01201974": 29043, "\u0120Ves": 2220, "pert": 5529, "ino": 45796, "\u01201982": 30317, "\u01201988": 35743, "\u0120Gu": 40215, "\u00c3\u0143a": 14678, "\u0120H": 250084, "\u01202007": 119783, "\u0120Cad": 6719, "ena": 21220, "\u0120UR": 457, "BE": 3479, "\u0120publication": 21603, "der": 21092, "\u0120Ur": 11424, "be": 41992, "ikini": 491, "\u0120Econom": 667, "\u0120y": 21274, "\u0120Neg": 4908, "oci": 3063, "Other": 21511, "\u0120media": 52523, "\u0120enterprises": 3411, "\u0120owned": 40522, "\u0120Mult": 4090, "icol": 3218, "\u0120Planet": 4949, "aur": 13572, "TV": 25529, "Changes": 911, "\u0120visual": 14877, "\u0120format": 24050, "\u0120did": 166805, "\u0120follow": 22104, "\u0120particular": 39089, "\u0120formula": 5639, "\u0120commentator": 3421, "\u0120dis": 22777, "organized": 5380, "\u0120But": 46908, "\u0120certain": 37691, "\u0120new": 369516, "\u0120parameters": 3348, "\u0120laid": 18717, "\u0120effort": 26197, "\u0120make": 109811, "\u0120layout": 6728, "\u0120simpler": 2013, "\u0120better": 41512, "\u0120organized": 27099, "\u0120At": 135635, "\u0120adopted": 27226, "\u0120more": 392747, "\u0120coll": 8510, "oqu": 2740, "\u0120tone": 6723, "\u0120aimed": 10910, "\u0120guide": 8703, "\u0120mid": 56733, "2002": 8289, "\u0120printing": 7833, "\u0120colour": 12179, "\u0120every": 75763, "\u0120page": 14401, "\u0120Between": 14579, "\u01202004": 79040, "\u01202006": 107732, "\u0120launched": 43306, "\u0120regional": 27171, "\u0120editions": 8337, "for": 25947, "\u0120areas": 74788, "\u0120Greater": 6820, "\u0120Car": 47442, "acas": 1949, "Between": 8783, "\u0120major": 113991, "\u0120multimedia": 1855, "\u0120operation": 36279, "\u0120website": 27379, "\u0120providing": 25601, "\u0120abundance": 2989, "\u0120material": 41418, "\u0120podcasts": 668, "\u0120videos": 10867, "\u0120video": 75302, "\u0120chats": 223, "\u0120interviews": 8934, "\u0120sound": 34364, "\u0120galleries": 3725, "\u0120radio": 54565, "\u0120presents": 6572, "\u0120clock": 8350, "\u0120Laun": 1455, "ched": 13828, "\u0120news": 37302, "\u0120app": 7808, "\u0120country": 99930, "\u0120develop": 25642, "\u0120own": 140081, "\u0120low": 59707, "\u0120cost": 40404, "\u0120tablet": 2101, "\u0120British": 147738, "\u0120fin": 7628, "anc": 19603, "\u0120Robert": 53395, "\u0120Hanson": 1743, "\u0120Ult": 2149, "\u0120company": 157808, "\u0120Family": 15432, "\u0120Holdings": 3217, "\u0120figure": 23585, "\u0120reported": 67449, "\u0120$": 162253, "US": 16992, "98": 17153, "\u0120million": 111490, "\u0120accused": 17917, "\u0120staff": 41301, "\u0120turning": 11790, "\u0120Socialist": 8253, "\u0120Party": 74462, "\u0120mouth": 13016, "piece": 4286, "\u0120editor": 29984, "\u0120Hector": 1946, "\u0120Dav": 6547, "ila": 15960, "\u0120replied": 4986, "\u0120instructions": 5747, "to": 67159, "\u0120run": 77953, "\u0120balanced": 2813, "\u0120profitable": 3050, "\".": 297610, "Pre": 7646, "2013": 11269, "\u0120sale": 18304, "Marc": 1531, "\u0120Ru": 7572, "\u0120reporter": 8698, "\u0120group": 164841, "\u0120journalists": 6592, "\u0120handing": 1396, "\u0120leaflets": 1238, "\u0120favor": 12895, "\u0120press": 27812, "\u0120freedom": 16209, "\u0120set": 131127, "\u0120upon": 58516, "\u0120least": 52724, "\u0120supporters": 12259, "\u0120President": 81233, "\u0120Hugo": 4070, "\u0120Ch": 121947, "vez": 3627, "\u0120punched": 930, "\u0120beat": 19502, "\u0120him": 366078, "\u0120clubs": 22848, "\u0120According": 52082, "\u0120employed": 21987, "\u0120injured": 17059, "\u0120ran": 42684, "\u0120front": 59434, "page": 4883, "\u0120headline": 1794, "\u0120declaring": 3599, "Enough": 125, "\u0120violence": 19013, "!": 32442, "Rep": 3325, "orters": 1725, "\u0120attacked": 23368, "According": 35508, "EN": 4961, "\u0120included": 128146, "\u0120Manuel": 6753, "\u0120Ale": 9403, "jandro": 1451, "lv": 3933, "arez": 1733, "\u00c3\u00a9s": 12015, "ar": 233430, "\u0120Bat": 12645, "\u0120Gre": 9252, "asi": 6880, "ola": 28162, "\u00c3\u00b1": 13859, "\u0120Sergio": 1511, "\u0120Moreno": 1679, "\u0120Gonz": 5688, "lez": 5293, "\u0120Oct": 4897, "av": 75323, "io": 80046, "\u0120Hernandez": 1391, "\u0120Jes": 4975, "\u00c3\u00ba": 16942, "\u0120Hurt": 1126, "ado": 17309, "\u0120Gab": 5345, "ri": 66830, "ela": 10481, "rib": 6542, "ren": 29271, "\u0120G": 266388, "lex": 4485, "\u0120Past": 5105, "ran": 25236, "\u0120Fernando": 4717, "\u0120Pe": 24274, "ver": 27844, "\u0120Marie": 10647, "ond": 32724, "\u00c3\u00b3n": 31277, "\u0120them": 264905, "\u0120employees": 17874, "\u0120wearing": 10272, "\u0120credentials": 1461, "\u0120protesting": 1583, "\u0120against": 268443, "\u0120government": 166163, "\u0120approval": 12584, "\u0120education": 84582, "\u0120law": 90951, "\u0120would": 414084, "\u0120restrict": 1999, "\u0120noted": 42832, "\u0120assailants": 497, "\u0120reportedly": 11741, "\u0120hit": 46250, "\u0120kicked": 3495, "\u0120leaving": 40024, "\u0120seriously": 7660, "\u0120accusing": 2365, "\u0120'": 161269, "def": 4403, "enders": 2660, "\u0120olig": 1836, "archy": 2810, "'": 441605, "people": 3221, "'.": 20390, "\u0120issued": 32793, "\u0120statement": 18177, "\u0120condemning": 1179, "\u0120attack": 58887, "\u0120Attorney": 9481, "\u0120General": 80263, "\u0120investigation": 19522, "\u012021": 76313, "\u0120suspect": 4971, "\u0120arrested": 25244, "\u0120despite": 34562, "\u0120fact": 44882, "\u0120there": 291433, "\u0120photos": 7209, "\u0120should": 71313, "\u0120easy": 11318, "\u0120identify": 10560, "\u0120others": 75625, "\u0120local": 148060, "\u0120reports": 23492, "owned": 8803, "\u0120broadcaster": 3504, "vil": 3274, "\u0120Government": 42878, "\u0120officials": 25960, "\u012012": 149804, "prov": 2654, "ocative": 719, "\u0120taking": 49305, "political": 2206, "\u0120stand": 21614, ",'": 4356, "\u0120leading": 61503, "\u0120fear": 10856, "\u0120action": 48689, "\u0120take": 96301, "C": 211375, "\u0120investigated": 5730, "\u0120assassination": 5843, "\u0120journalist": 15759, "\u0120O": 149224, "rel": 14701, "\u0120Sam": 33126, "br": 22056, "ano": 35855, "\u0120murder": 22649, "\u0120writing": 50838, "\u0120columns": 8765, "\u0120rise": 19034, "\u0120drug": 20504, "\u0120trafficking": 4074, "\u0120written": 71283, "\u0120collaboration": 15131, "\u0120Jesus": 15400, "\u0120Y": 87696, "aj": 48568, "ure": 46446, "\u0120failure": 19063, "\u0120police": 59667, "\u0120arrest": 13233, "\u0120suspects": 3541, "\u0120killing": 17899, "\u0120film": 227677, "\u0120producer": 27763, "\u0120entrepreneur": 3034, "\u0120Jac": 3260, "into": 4407, "\u0120Lopez": 2964, "icism": 5676, "\u0120Venezuelan": 2829, "\u0120published": 127637, "\u0120great": 70086, "\u0120deal": 40528, "\u0120investigative": 2146, "\u0120journalism": 6136, "\u0120placed": 54205, "\u0120odds": 3499, "\u0120administration": 27918, "\u0120Among": 19229, "\u0120example": 72614, "\u0120this": 611685, "\u0120exp": 8645, "\u0120Der": 9075, "wick": 11647, "\u0120Associates": 3001, "\u0120firm": 29475, "\u0120bribery": 1148, "b": 151512, "illing": 7335, "\u0120target": 17972, "\u0120several": 195271, "\u0120lawsuits": 2223, "\u0120United": 248475, "\u0120States": 186214, "At": 52738, "\u0120meeting": 39784, "\u0120Council": 81485, "\u0120Ministers": 2921, "\u01202012": 133189, "\u0120manipulating": 904, "\u0120information": 60500, "\u0120concerning": 8871, "\u0120announcement": 7262, "\u0120presidential": 14834, "\u0120candidacy": 2891, "First": 10005, "\u0120get": 63123, "\u0120copy": 10501, "\u0120says": 26835, "Ch": 34263, "\u0120will": 202103, "\u0120announce": 2410, "\u0120between": 322461, "\u0120June": 174999, "\u012011": 116054, "And": 10094, "\u0120receive": 24857, "\u0120another": 126901, "\u0120...": 22332, "\u0120still": 130318, "\u0120doesn": 10634, "'t": 90923, "\u0120know": 28055, "\u0120ask": 7744, "\u0120myself": 3810, "\u0120why": 17081, "\u0120change": 55818, "?": 23356, "\u0120What": 11153, "\u0120trying": 19739, "\u0120manipulate": 1559, "?'": 1200, "\u0120explained": 14259, "\u0120publishes": 3291, "\u0120day": 138143, "\u0120headlines": 1647, "\u0120frequently": 22159, "\u0120changed": 51360, "\u0120edition": 31338, "\u0120next": 103618, "\u0120order": 103460, "\u0120improve": 18142, "\u0120clarity": 1395, "\u0120second": 237554, "\u0120saw": 60862, "\u0120appeared": 81007, "\u0120while": 250303, "\u0120five": 126194, "Post": 10706, "\u0120party": 78272, "\u0120unidentified": 1663, "\u0120commentary": 6493, "\u0120criticizing": 1816, "\u0120declined": 13871, "\u0120supposedly": 4195, "\u0120due": 137462, "\u0120owners": 16298, "tim": 1394, "\u0120close": 58030, "\u0120transpired": 488, "\u0120owner": 25968, "orship": 9406, "\u0120allegations": 7505, "Following": 22809, "\u0120alleged": 13367, "\u0120censorship": 2734, "\u0120newspapers": 12274, "\u0120director": 68232, "\u0120during": 346880, "\u0120protests": 9729, "\u0120Chief": 31781, "\u0120Res": 11901, "earcher": 405, "\u0120Tam": 10093, "oa": 8608, "\u0120Cal": 31315, "ad": 137740, "illa": 22398, "\u0120along": 142235, "\u0120resigned": 18456, "\u0120Nath": 1899, "ie": 152781, "var": 8529, "\u0120woman": 43678, "\u0120Media": 19224, "\u0120VP": 1339, "\u0120leader": 43400, "\u0120innovation": 5066, "\u0120convergence": 1200, "\u0120week": 48744, "\u01202015": 122002, "\u0120Venezuel": 311, "ans": 70094, "\u0120responded": 11027, "\u0120social": 73434, "\u0120controversial": 12315, "Mad": 4022, "uro": 13699, "\u0120Tour": 23680, "\u0120Was": 4864, "\u0120Success": 2957, "\u0120portraying": 2398, "\u0120Nicolas": 2916, "\u0120Maduro": 951, "\u0120Saudi": 8211, "\u0120Arabia": 6686, "\u0120successful": 52734, "\u0120outlets": 4924, "\u0120calling": 16975, "\u0120title": 93310, "\u0120led": 120172, "\u0120making": 77123, "\u0120satirical": 2323, "\u0120biased": 1146, "\u00c4": 32538, "\u0132": 17836, "\u00c3\u00b4": 10713, "ng": 29126, "\u00c3\u0142": 9995, "iet": 15407, "nam": 9005, "\u0120War": 176414, "During": 55804, "\u0120Vietnam": 16600, "\u0120\u00c4": 12484, "most": 12277, "\u0120town": 127538, "\u0120South": 157113, "\u0120location": 43042, "\u0120strategically": 1235, "\u0120Marine": 15981, "\u0120Corps": 28926, "\u0120Combat": 4202, "\u0120Base": 9987, "\u0120support": 109279, "\u0120positions": 25088, "\u0120Vietnamese": 6978, "\u0120Dem": 9913, "ilit": 2648, "\u0120Zone": 8585, "DM": 1860, "rd": 40806, "\u0120Division": 68837, "\u0120overall": 30856, "\u0120command": 40366, "\u0120control": 78672, "\u0120operational": 10495, "\u0120area": 205751, "\u0120Large": 3594, "\u0120numbers": 28196, "\u0120N": 224491, "VA": 4081, "\u0120operated": 34464, "\u0120DM": 2331, "\u0120intelligence": 15708, "\u0120estimated": 25907, "\u0120combat": 19814, "\u0120strength": 17173, "\u0120VC": 2276, "\u0120forces": 64613, "\u012040": 49459, "9": 89912, "43": 21448, "\u0120troops": 39691, "\u0120overrun": 1503, "\u0120March": 172213, "31": 25142, "\u0120initial": 29305, "\u0120assaults": 1830, "\u0120North": 135368, "\u0120Easter": 4779, "\u0120Offensive": 2472, "Tour": 3243, "ists": 52451, "\u0120come": 48419, "\u0120nowadays": 1642, "\u0120especially": 47653, "\u0120ex": 24483, "serv": 1370, "emen": 5540, "\u0120U": 216997, "\u0120nearly": 34682, "\u0120always": 37501, "\u0120tour": 46701, "\u0120programs": 39596, "\u0120singer": 27183, "h": 203322, "\u00c6": 3618, "\u00b0": 18763, "\u0120Qu": 32596, "\u00e1": 32433, "\u00bb": 27413, "\u00b3": 20816, "ci": 20788, "\u0120As": 172973, "htar": 1730, "ih": 21602, "stanbul": 585, "\u0120Turkey": 13448, "\u01201948": 23229, "\u0120She": 258979, "\u0120younger": 24340, "\u0120sister": 37068, "\u0120D": 303948, "uy": 13727, "gu": 9874, "\u0120notable": 25594, "\u0120graduated": 38411, "\u0120School": 188849, "\u0120English": 103878, "\u0120studies": 48208, "\u0120University": 277446, "\u0120Miss": 15882, "\u0120beauty": 8324, "\u0120contest": 15324, "\u0120pseudonym": 3124, "yl": 35344, "nder": 3892, "\u0120actually": 27105, "\u0120aunt": 3728, "\u0120name": 193368, "\u0120died": 137755, "\u0120young": 70920, "\u0120married": 102955, "\u0120Hal": 11328, "it": 118649, "\u0129": 17910, "ap": 73531, "\u00c4\u00b1": 10582, "\u0120gave": 71814, "\u0120birth": 25305, "\u0120daughter": 70597, "\u0120Ber": 24410, "fu": 2783, "\u0120marriage": 37391, "\u0120ended": 47227, "\u0120divorce": 7306, "\u0120lasting": 4978, "\u0120briefly": 16967, "Liter": 2516, "ature": 8211, "\u0120established": 104819, "\u0120publishing": 14321, "\u0120Adam": 13672, "nl": 404, "\u0120poems": 10924, "\u0120San": 89889, "\u0120literary": 17971, "\u0120period": 108788, "\u0120some": 275014, "\u0120used": 309960, "\u0120pen": 8704, "\u0120An": 87638, "\u0120Tor": 16270, "\u0120wrote": 98401, "\u0120books": 47464, "\u0140": 12172, "aml": 166, "\u0120Z": 113600, "ang": 91772, "ilan": 890, "\u0120Ray": 17298, "\u0120Azerbaijan": 6083, "ere": 27810, "\u0120Has": 7425, "Prof": 905, "ional": 13113, "Has": 1631, "\u0120transferred": 33716, "ener": 10845, "bah": 1535, "\u00c3\u00a7": 16906, "\u0120Be": 55310, "yo": 5110, "\u00c4\u0141": 3637, "lus": 1128, "por": 7431, "\u01201955": 19974, "\u0120fan": 14170, "\u0120favourites": 1038, "\u0120playing": 69434, "69": 20108, "\u0120scoring": 24614, "\u0120168": 1515, "\u0120goals": 40275, "\u0120Turkish": 14477, "\u0120League": 114007, "\u01204": 206562, "\u0120Istanbul": 4352, "\u0120twice": 23395, "\u012037": 14829, "\u0120starting": 34516, "\u0120captain": 22432, "Personal": 37291, "\u0120brother": 64491, "\u0120Meh": 3093, "met": 13502, "\u0120Ali": 14650, "\u0120footballer": 3620, "\u0120Ad": 40683, "aman": 11157, "Ge": 31714, "Ak": 2078, "ag": 92694, "\u0120mountain": 18951, "\u0120within": 123697, "\u0120systems": 45232, "\u0120stretches": 2565, "\u0120southwest": 11237, "\u0120north": 99539, "\u0120\u00c5": 20835, "\u0120Land": 29699, "\u0120forms": 32948, "\u0120r": 41020, "ipp": 16165, "led": 29322, "grass": 3025, "ively": 9025, "\u0120Sar": 17313, "aya": 20915, "\u0120agricultural": 16626, "\u0120planes": 5100, "\u0120south": 90624, "\u0120Almost": 2896, "\u0120each": 157317, "\u0120height": 18040, "\u0120valley": 16026, "\u0120dwell": 1828, "ers": 185628, "\u0120hill": 15282, "\u0120east": 68362, "coord": 511, "inates": 925, "80": 22185, "89": 15820, "\u012038": 16718, "08": 18928, "87": 21821, "ull": 18583, "uk": 43797, "\u0120Te": 29246, "pe": 38655, "k": 204036, "\u0120hat": 7592, "\u0120worn": 8267, "\u0120females": 28427, "\u0120fertile": 2729, "\u0120southeast": 11604, "\u0120''": 303, "urd": 8872, "''": 325, "Co": 15105, "ord": 31603, "\u00c2\u00b0": 51521, "47": 23999, "45": 25841, "2": 200117, "05": 18036, "7": 98840, "E": 99953, "\u0120plantations": 3198, "ayan": 10642, "37": 23628, "48": 25897, "39": 24811, "3": 155502, "04": 16046, "5": 156206, "\u0120flat": 16184, "\u0120fields": 20008, "D": 163361, "uz": 17502, "00": 29604, "6": 109405, "\u0120There": 115818, "\u0120alleg": 1984, "orical": 5293, "\u0120names": 30923, "\u0120after": 506968, "\u0120historical": 30632, "\u0120figures": 22018, "\u00c5\u0141": 8119, "un": 84092, "uru": 5436, "Ve": 1548, "get": 7918, "ation": 99879, "Oak": 1416, "\u0120trees": 20993, "\u0120spor": 1700, "ically": 28396, "\u0120exist": 17390, "ent": 57753, "\u0120relatively": 22222, "\u0120higher": 45535, "\u0120elev": 4253, "\u0120Majority": 1251, "\u0120elevated": 7537, "\u0120locations": 18376, "\u0120subject": 37624, "\u0120land": 108094, "\u0120erosion": 3498, "\u0120Due": 15582, "\u0120dry": 14611, "\u0120summer": 48792, "\u0120seasons": 30492, "\u0120grass": 11489, "lands": 16932, "\u0120forest": 23050, "\u0120vegetation": 5683, "\u0120minute": 14232, "\u0120amount": 29701, "\u0120Lands": 3533, "\u0120unc": 4252, "ult": 12098, "ivated": 2103, "\u0120covered": 32156, "\u0120wild": 13866, "\u0120scrub": 1888, "\u0120Aqu": 9139, "atic": 27471, "\u0120plants": 22919, "\u0120grow": 14453, "eds": 4541, "\u0120marsh": 5101, "\u0120places": 26265, "\u0120aquatic": 2389, "arp": 11465, "\u0120sir": 541, "\u0120p": 65538, "inc": 19193, "\u0120edible": 1225, "\u0120regularly": 16538, "\u0120picked": 10843, "\u0120locals": 4834, "\u0120spring": 24894, "\u0120Thorn": 2580, "\u0120apples": 1002, "\u0120rose": 13424, "\u0120hips": 619, "\u0120tur": 2940, "pent": 2087, "ears": 4419, "\u0120naturally": 5203, "\u0120without": 90663, "\u0120anthrop": 4065, "ogenic": 4002, "\u0120involvement": 13447, "Wild": 2851, "\u0120Animals": 2001, "Fal": 896, "cons": 4987, "\u0120haw": 1293, "ks": 33221, "\u0120ow": 849, "ls": 11884, "ridges": 534, "\u0120qu": 14873, "ails": 4348, "\u0120sp": 25828, "arrow": 4299, "\u0120pige": 728, "ons": 63954, "\u0120c": 59455, "rows": 4776, "\u0120primary": 44623, "\u0120species": 75982, "\u0120Capt": 3004, "uring": 10221, "\u0120pet": 9345, "ting": 24310, "\u0120hobby": 1906, "\u0120among": 100075, "\u0120men": 104499, "\u0120Hunting": 2238, "\u0120dietary": 1427, "\u0120purposes": 14397, "\u0120popular": 77521, "\u0120hosts": 12049, "\u0120steep": 7522, "\u0120rocky": 3512, "\u0120acts": 18519, "\u0120safe": 12222, "\u0120heaven": 2559, "\u0120Local": 10833, "\u0120do": 104231, "\u0120welcome": 3398, "\u0120strangers": 1029, "\u0120hunting": 9254, "\u0120Sere": 2349, "\u0120people": 218531, "\u0120territorial": 5616, "\u0120even": 101709, "\u0120often": 113661, "\u0120abst": 1638, "ain": 45869, "\u0120person": 47036, "\u0120occurrences": 978, "\u0120attempted": 23238, "\u0120homicides": 330, "\u0120bodily": 1290, "\u0120harms": 311, "\u0120disputes": 4708, "\u0120uncommon": 3347, "abb": 8402, "its": 29661, "\u0120fox": 2757, "\u0120we": 76785, "els": 36350, "\u0120animals": 22009, "\u0120living": 68877, "\u0120habitat": 11496, "Climate": 2856, "\u0120weather": 16255, "\u0120trend": 6047, "\u0120classified": 10942, "sa": 5382, "\u0120Ko": 7669, "open": 3166, "iger": 6166, "\u0120climate": 17969, "\u0120classification": 8185, "\u0120system": 140558, "\u0120summers": 2934, "\u0120After": 176494, "\u0120construction": 68548, "atur": 6935, "\u0120Dam": 12656, "\u0120increasing": 20821, "\u0120humidity": 1832, "\u0120levels": 32275, "\u0120likened": 1244, "\u0120region": 73495, "\u0120Mediterranean": 9899, "\u0120considerable": 13722, "\u0120precipitation": 2966, "\u0120observed": 18359, "\u0120cold": 12057, "\u0120winter": 21100, "\u0120months": 72700, "\u0120dri": 1787, "est": 57856, "\u0120mm": 3235, "\u0120average": 69090, "\u0120rain": 11980, "\u0120135": 2562, "\u0120rainfall": 5213, "\u0120rate": 36614, "\u0120makes": 32701, "ce": 41958, "m": 233447, "bers": 7046, "\u0120month": 37463, "\u0120highest": 38178, "\u0120July": 169637, "\u0120hottest": 620, "\u012030": 101987, "\u0120\u00c2\u00b0": 954, "\u0120temperature": 16327, "\u0120qualifies": 613, "\u0120Jan": 19453, "aries": 22152, "\u0120annual": 37877, "\u012025": 93982, "Ag": 5517, "ric": 35946, "ulture": 6692, "\u0120lands": 18322, "\u0120activity": 29848, "\u0120tobacco": 5386, "\u0120cultivation": 4034, "\u0120imposed": 6209, "\u0120quota": 1438, "\u0120har": 5662, "ests": 6358, "\u0120restrictions": 7044, "\u0120restrained": 1216, "\u0120main": 118904, "\u0120income": 37504, "\u0120source": 33746, "\u0120dramatically": 3831, "\u0120caused": 42644, "\u0120migration": 5983, "\u0120wave": 12578, "\u0120cities": 30993, "\u0120pursuit": 5019, "\u0120employment": 11655, "\u0120chances": 3359, "Fig": 509, "\u0120grape": 2864, "\u0120apple": 1873, "\u0120pist": 850, "ach": 66755, "\u0120wheat": 4396, "\u0120lent": 2653, "\u0120chick": 822, "\u0120pe": 11253, "\u0120barley": 1387, "\u0120products": 32219, "\u0120harvested": 1592, "\u0120farmers": 10448, "\u0120foundation": 17816, "\u0120Ottoman": 13170, "\u0120Empire": 33762, "59": 20334, "\u0120founders": 6328, "\u0120Turk": 5825, "\u0120belonging": 7171, "\u0120Amin": 1799, "ake": 14444, "cil": 2382, "iler": 6381, "men": 44839, "\u0120Tribe": 2315, "\u0120moved": 131919, "\u0120Sel": 12730, "j": 130355, "ays": 22139, "\u0120neighboring": 7191, "\u0120K": 302322, "his": 7319, "\u0120community": 93481, "\u0120very": 127101, "\u0120loyalty": 4503, "\u0120governments": 10761, "\u0120traditionally": 8551, "\u0120tribes": 11200, "\u0120uncond": 369, "itionally": 2770, "\u0120accepted": 28447, "\u0120supported": 41211, "\u0120central": 48138, "\u0120outpost": 1448, "\u0120keep": 29947, "\u0120villages": 18409, "\u0120populated": 4478, "\u0120Kurds": 1307, "\u0120minorities": 2991, "\u0120surveillance": 4229, "\u0120Likewise": 2042, "\u0120maintained": 18564, "\u0120Kurdish": 2852, "\u0120separatist": 933, "\u0120organization": 46722, "\u0120PKK": 369, "\u01201980": 63225, "Turkish": 2042, "\u0120Army": 82906, "\u0120recruited": 8065, "\u0120guards": 5850, "\u0120reinforce": 2202, "\u0120army": 48875, "\u0120anti": 39530, "P": 136464, "KK": 1294, "\u0120campaign": 57084, "\u0120threatened": 12037, "\u0120plotted": 1042, "\u0120attacks": 25591, "\u0120couple": 27129, "\u0120separatists": 445, "\u0120considered": 79270, "\u0120hostile": 4931, "\u0120base": 45269, "\u0120weakening": 1254, "\u0120foothold": 573, "\u0120Ge": 21166, "ographical": 7645, "\u0120strateg": 493, "\u0120knowledge": 24860, "\u0120boosted": 1095, "\u0120Armed": 5843, "\u0120Force": 42143, "\u0120operations": 47539, "\u0120listed": 32774, "\u0120terrorist": 5325, "\u0120international": 74242, "\u0120authorities": 24258, "\u0120night": 51715, "\u0120raid": 8430, "\u0120targeting": 3163, "head": 25705, "\u01201991": 40226, "\u0120Those": 7695, "\u0120targeted": 6502, "\u0120households": 28909, "\u0120accommod": 1829, "ated": 90323, "\u0120women": 104254, "\u0120civilians": 6681, "\u0120attacking": 7856, "\u0120militants": 2560, "\u0120opened": 85815, "\u0120barrage": 1303, "\u0120gunfire": 1726, "\u0120AK": 2845, "\u0120machine": 21212, "\u0120guns": 21854, "\u0120sid": 1910, "ear": 10717, "ms": 20418, "\u0120hand": 49794, "\u0120grenade": 1630, "\u0120thrown": 6229, "\u0120house": 103169, "\u0120deton": 2093, "ate": 110372, "\u0120launch": 19835, "\u0120rocket": 5924, "\u0120propelled": 1254, "\u0120reacting": 623, "\u0120guard": 12563, "\u0120supp": 1190, "ressive": 1754, "\u0120fire": 62655, "\u0120stopped": 15824, "\u0120terrorists": 2275, "\u0120fled": 11453, "\u0120using": 96390, "\u0120darkness": 2839, "\u0120cover": 38357, "\u0120One": 84342, "\u0120civilian": 10056, "\u0120killed": 59751, "\u0120willingness": 1701, "\u0120enlist": 2469, "\u0120Forces": 14764, "\u0120choose": 10834, "\u0120military": 86601, "\u0120enforcing": 1163, "\u0120careers": 4753, "\u0120fors": 407, "aking": 8846, "\u0120holy": 4317, "\u0120martyr": 2799, "dom": 5825, "\u0120entit": 270, "\u0120servic": 1377, "\u0120service": 117334, "\u0120Specialist": 1098, "\u0120Sergeant": 3316, "\u0120Hak": 2881, "ild": 9801, "\u0120man": 89034, "\u0120chose": 16584, "\u0120entitled": 23624, "\u0120lost": 85100, "fight": 2162, "\u0120Bing": 4767, "ol": 93407, "G": 128456, "enc": 3902, "\u0120pride": 3556, "\u0120patriotism": 991, "\u0120state": 168947, "\u0120threats": 6674, "\u0120pressure": 26776, "\u0120surrounding": 24332, "\u0120ethnic": 14253, "\u0120fractions": 564, "Politics": 3750, "\u0120ballot": 4821, "\u0120boxes": 4573, "\u0120usually": 53450, "\u0120yield": 4522, "\u0120center": 49348, "right": 6742, "\u0120parties": 24339, "\u0120ruling": 11416, "\u0120political": 90863, "\u0120received": 151538, "\u0120majority": 39159, "\u0120votes": 22525, "\u0120elections": 28719, "\u0120AN": 5048, "AP": 14757, "HP": 2257, "YP": 658, "\u0120DP": 991, "\u0120coup": 8686, "\u0120done": 37631, "\u0120Ev": 6216, "\u0120September": 174691, "otes": 3770, "\u0120liberal": 9324, "\u0120democrat": 732, "\u0120pro": 23740, "ish": 77715, "\u0120either": 57170, "Ad": 15067, "iy": 19445, "\u0120province": 22547, "\u0120airport": 17354, "\u0120coach": 49003, "\u0120Shuttle": 2066, "\u0120buses": 8195, "\u0120connect": 8389, "\u0120Province": 17512, "\u0142": 17075, "oda": 7835, "Background": 28714, "\u01201949": 20188, "\u0120plant": 36728, "lad": 4321, "oles": 7436, "lav": 3507, "\u0120assembled": 6154, "\u0120last": 119882, "\u0120Super": 39815, "bs": 18740, "\u0120large": 137504, "cyl": 3234, "inder": 8917, "\u0120lim": 2768, "ines": 34556, "\u0120ev": 7281, "oking": 2267, "\u0120American": 200693, "\u0120cars": 25330, "\u0120late": 112047, "\u01201930": 33390, "\u0120needed": 30298, "\u0120replacement": 13446, "\u0120instructed": 4104, "\u0120car": 68636, "\u0120become": 106523, "\u0120letters": 19457, "\u0120indicated": 11727, "special": 1961, "\u0120Czech": 16119, "\u0120Slov": 3538, "ak": 117518, "dn": 1642, "so": 22959, "bn": 1833, "\u0120Spe": 6490, "ny": 17693, "\u00bd": 14730, "\u0120went": 114409, "\u0120production": 90050, "\u01201950": 43112, "\u0120builder": 2821, "even": 2761, "osa": 12915, "\u0120final": 115732, "\u0120assembly": 12648, "\u0120unrem": 403, "arkable": 747, "\u0120having": 98181, "\u0120Old": 36273, "una": 12645, "\u0120whose": 50068, "\u0120till": 8874, "\u0120point": 78441, "\u0120designing": 3784, "\u0120tanks": 10619, "\u0120mechanical": 8894, "\u0120conventional": 9000, "mounted": 3560, "\u0120engine": 36244, "\u0120driving": 15128, "\u0120rear": 19551, "\u0120wheels": 5812, "More": 5028, "\u0120remarkable": 5375, "\u0120terms": 38683, "\u0120European": 77217, "\u01205": 192897, "lit": 4520, "re": 123814, "\u0120delivering": 3381, "\u0120120": 10113, "PS": 12538, "88": 15467, "W": 108784, "\u0120Pr": 37551, "aga": 14324, "\u0120truck": 8435, "\u0120Because": 19063, "\u0120weight": 20628, "\u0120armour": 3454, "\u0120pl": 21294, "ating": 45690, "\u0120standard": 39641, "\u0120weighed": 2663, "\u0120tons": 14843, "\u0120however": 99665, "\u0120speed": 29922, "\u0120restricted": 8566, "\u012080": 24936, "/": 291547, "mph": 13549, "\u0120orders": 18790, "\u0120interior": 16407, "\u0120ministry": 8495, "Light": 2273, "weight": 13605, "\u0120version": 79807, "Un": 9526, "usually": 3699, "\u0120fitted": 10207, "condition": 1094, "\u0120conditioning": 2229, "\u0120mechanism": 9653, "\u0120occupied": 22135, "\u0120space": 49081, "\u0120boot": 4518, "tr": 13397, "unk": 11020, "\u0120dign": 1991, "\u0120moving": 30089, "\u0120travel": 26501, "\u0120followed": 69859, "\u0120carry": 18973, "\u0120luggage": 1101, "Cele": 902, "ity": 46471, "\u0120connections": 9575, "amous": 2350, "\u0120Gott": 2849, "wald": 4074, "ox": 20501, "ha": 53438, "\u0120Zhu": 2833, "\u0120Ana": 3312, "\u0120Pau": 2336, "ker": 15286, "\u0120Mao": 3336, "\u0120Zed": 1165, "ong": 63910, "An": 34190, "\u0120infamous": 2479, "\u0120female": 49081, "\u0120communist": 7148, "\u0120Romanian": 8733, "\u0120Workers": 6409, "later": 10432, "\u0120Communist": 14414, "\u0120)": 3178, "\u0120running": 40781, "\u0120tracks": 27818, "\u0120reaching": 17225, "\u0120speeds": 4637, "\u0120115": 4922, "\u0120total": 88029, "\u0120display": 19048, "\u0120train": 36160, "\u0120Station": 30818, "\u0120Sina": 604, "ia": 192959, "\u0120driver": 15775, "\u0120secure": 12853, "\u0120wind": 17381, "\u0120shield": 4935, "\u0120smashed": 1016, "\u0120supposed": 9529, "\u0120lady": 4644, "alin": 2584, "\u0120skirt": 1138, "\u0120near": 108662, "\u0120Ro": 21199, "ior": 14282, "\u0120end": 177604, "Production": 12212, "\u01201952": 19738, "\u0120107": 3390, "\u0120invited": 20627, "\u0120replace": 15773, "\u0120nation": 21678, "\u0120elite": 6664, "\u0120switched": 8553, "\u0120allegiance": 2903, "\u0120T": 272487, "atra": 6361, "\u01206": 170020, "03": 15628, "ub": 44847, "\u00c5\u00a1": 24003, "ma": 40839, "kan": 4386, "\u0120sources": 26275, "\u0120recovered": 10714, "ur": 116569, "\u0120lists": 8145, "\u0120grain": 5747, "\u0120messenger": 1568, "\u0120Nazi": 11947, "arr": 13305, "uta": 4741, "\u0120fourth": 45753, "130": 4607, "4": 128354, "\u0120BC": 21346, "\u0120court": 60093, "\u0120dated": 12985, "teenth": 9958, "Mar": 13987, "ut": 66612, "92": 23933, "\u00a1": 17515, "akin": 2555, "\u00c4\u0123": 30887, "ti": 9817, "\u0120l": 52741, "AR": 10399, "UR": 2741, "govern": 1192, "\u0120injunction": 1904, "\u0120forb": 2248, "idding": 1391, "\u0120harvesting": 1630, "\u0120river": 47178, "\u0120canal": 9364, "\u0120poetic": 2800, "\u0120Lud": 5384, "ul": 73850, "\u0120b": 61776, "\u00c4\u0135": 3430, "me": 40045, "qi": 1905, "\u0120describes": 16867, "\u0120fortunes": 2177, "\u0120rich": 15348, "\u0120high": 163645, "\u0120rank": 19756, "\u0120turned": 37819, "\u0120When": 92619, "\u0120bes": 1708, "et": 132194, "\u0120ominous": 388, "\u0120signs": 10225, "\u0120incurred": 1608, "\u0120wrath": 843, "\u0120seven": 58227, "iers": 19295, "\u0120mischief": 441, "\u0120resulted": 27513, "\u0120losing": 24882, "\u0120property": 44245, "they": 3417, "\u0120divided": 25895, "\u0120my": 49199, "\u0120possessions": 3228, "\u0120riff": 1242, "ra": 107363, "ff": 23348, "\u0120friends": 34405, "my": 15011, "\u0120frown": 126, "\u0120me": 45407, "\u0120enemy": 22264, "\u0120indeed": 7573, "\u0120savage": 968, "\u0120physical": 28278, "\u0120flesh": 3308, "\u0120fl": 28941, "acc": 7647, "\u0120blood": 25142, "\u0120eb": 447, "\u0120health": 49395, "\u0120relates": 3218, "wall": 5210, "owed": 4728, "\u0120exc": 6452, "ment": 40535, "\u0120sheep": 6043, "\u0120While": 60007, "\u0120slipping": 607, "\u0120consciousness": 5066, "\u0120bed": 11497, "\u0120already": 46342, "\u0120conducting": 6623, "\u0120funeral": 9590, "ind": 35332, "ug": 30997, "ga": 17222, "\u00c3\u00bb": 1524, "\u0120inc": 10101, "ant": 93741, "\u0120priest": 15136, "\u0120sent": 67068, "ard": 82807, "\u0120pres": 4326, "age": 60868, "\u0120salvation": 1640, "\u0120concludes": 3343, "\u0120prayer": 6129, "\u0120text": 26186, "\u0120speculate": 771, "\u0120author": 35848, "\u0120himself": 82458, "\u0120Perhaps": 1934, "\u0120certainty": 1264, "\u0120significant": 46785, "\u0120reign": 15988, "\u0120Of": 24981, "\u0120fifty": 7768, "\u0120eight": 55045, "\u0120extant": 3376, "\u0120fragment": 3126, "ary": 74876, "\u0120date": 40574, "\u0120neo": 3320, "Ass": 5365, "rian": 15042, "ab": 98485, "ylon": 3945, "ian": 195268, "\u0120periods": 10843, "by": 56908, "\u0120Pol": 11864, "ka": 41388, "\u00c5\u0124": 18965, "sk": 15101, "\u0127": 20552, "Let": 4260, "\u0120Poland": 20479, "\u0120less": 66078, "\u0120commonly": 21464, "\u0120Polish": 23626, "\u0120protest": 12026, "\u01201976": 28479, "song": 5715, "writer": 12068, "\u0120Piet": 5173, "\u0120Kor": 5437, "cz": 4710, "\u0120song": 132168, "\u0120informal": 3990, "\u0120anthem": 2903, "\u0120Solid": 2723, "arity": 3408, "\u0120People": 26557, "\u0120Republic": 40832, "\u0120From": 62402, "\u0120Soviet": 42689, "style": 9708, "\u0120communism": 1892, "\u0120way": 102355, "\u0120collapse": 8416, "\u0120Warsaw": 6778, "\u0120Pact": 1501, "\u0120symbol": 14466, "\u0120opposition": 24274, "\u0120regime": 11899, "\u0120members": 131732, "NS": 4915, "ZZ": 564, "arn": 21473, "\u013d": 19934, "\u00c4\u0129": 36241, "pri": 5543, "ze": 26242, "\u01201981": 28706, "\u0120Song": 17302, "\u0120Op": 9592, "ole": 27412, "\u0120prize": 14046, "\u0120works": 85855, "As": 87393, "\u0120notes": 19114, "\u0120rarely": 8899, "\u0120serious": 19300, "\u0120motivated": 3957, "\u0120so": 190345, "\u0120workers": 30935, "\u0120Urs": 2565, "us": 201938, "\u0120factory": 17493, "\u0120Music": 50619, "\u0120composed": 28941, "\u0120un": 56933, "confirmed": 680, "\u0120anecdote": 464, "\u0120suggests": 15337, "phrase": 681, "\u0120coined": 3806, "\u0120Os": 12641, "ck": 40354, "\u0120stage": 56388, "aret": 5020, "\u0120pod": 1864, "\u0120Eg": 3441, "\u0120ending": 19427, "\u0120theme": 21579, "\u0120cens": 2369, "ade": 46352, "\u0120Cab": 8828, "\u0120enc": 6979, "\u0120habitual": 379, "\u0120sung": 6360, "\u0120audience": 23221, "\u0120popularity": 14745, "\u0120years": 398176, "\u0120copying": 1220, "\u0120tape": 8070, "\u0120emergence": 3350, "\u0120stations": 34326, "\u0120internal": 18006, "\u0120speakers": 6889, "\u012019": 98904, "\u0120winning": 44863, "\u0120awards": 21386, "hit": 2338, "\u0120choice": 17663, "\u0120tried": 26726, "\u0120rep": 17388, "ress": 14633, "\u0120reasons": 19424, "\u0120performances": 25372, "\u0120gathering": 6014, "\u0120thousands": 15196, "\u0120streets": 14700, "\u0120chanting": 881, "\u0120no": 231058, "\u0120recordings": 11821, "\u0120largest": 55098, "roads": 5385, "Ale": 2155, "je": 13768, "\u0120J": 186257, "ero": 12603, "\u0120Mars": 10639, "za": 29446, "ows": 13602, "commun": 3412, "\u0120aftermath": 5858, "\u0120introduction": 16339, "\u0120martial": 6166, "ultural": 3438, "\u0120significance": 10615, "\u0120spite": 5377, "\u0120mainly": 32328, "\u0120context": 13428, "\u0120reson": 1658, "\u0120millions": 5315, "\u0120particularly": 39517, "\u0120dream": 8383, "ef": 15040, "isch": 6117, "ner": 52569, "\u0120solemn": 1623, "\u0120words": 28359, "\u0120tell": 13549, "\u0120everlasting": 285, "\u0120ind": 4922, "om": 87894, "itable": 6010, "\u0120spirit": 11300, "\u0120Eventually": 8514, "\u0120critical": 24847, "\u0120voices": 4965, "\u0120advisors": 1395, "\u0120references": 8897, "\u0120contained": 18455, "national": 3680, "istic": 25932, "\u0120chau": 801, "vin": 11513, "\u0120backward": 1838, "\u0120Nonetheless": 2736, "\u0120standing": 16025, "\u0120Ronald": 5130, "\u0120Reagan": 4197, "\u0120speech": 19705, "\u0120Let": 6482, "\u0120presented": 37215, "\u0120engraved": 2288, "\u0120plaque": 4606, "\u0120bearing": 6009, "\u0120quoted": 6818, "\u0120Queen": 34814, "\u0120Elizabeth": 24900, "\u0120II": 106157, "\u0120parliament": 13220, "ok": 48618, "ky": 27633, "\u0120municipality": 21738, "\u0120Martin": 33280, "\u0120District": 70473, "ina": 78137, "\u0120Region": 12574, "\u0120Slovakia": 3392, "\u0120mentioned": 26148, "82": 20769, "\u0120lies": 18536, "\u0120altitude": 6605, "\u0120426": 362, "\u0120metres": 30741, "\u0120covers": 16953, "231": 674, "\u00c2\u00b2": 65335, "\u0120population": 116238, "10": 69075, "\u0131": 6770, "ir": 103435, "\u0120Gor": 6682, "boy": 7034, "006": 412, "\u00ce": 19769, "con": 20700, "gence": 1522, "Applications": 1516, "\u0120\\": 639, "Gam": 720, "\u0120hom": 13031, "ogen": 8542, "ization": 44258, "\u0120theory": 34504, "\u0120rig": 3255, "orously": 418, "\u0120justify": 2254, "\u0120passage": 10795, "\u0120discrete": 1956, "\u0120continuum": 905, "\u0120theories": 7544, "\u0120materials": 23935, "\u0120elastic": 1485, "(": 45307, "\u0120Wish": 1436, "new": 6758, "\u0120How": 10978, "\u0120Would": 658, "\u0120Feel": 1362, "\u0120Free": 16743, "Content": 1882, "\"(": 600, "\u0120Billy": 9502, "\u0120Taylor": 19055, "mn": 4007, "Second": 5989, "\u0120domain": 10267, "\u0120registered": 16482, "\u0120Mongolia": 2514, "\u0120intended": 30374, "\u0120language": 61003, "\u0120.": 43029, "\u00d0\u00bc": 2602, "\u00d0\u00be": 7202, "\u00d0\u00bd": 10718, "\u0120Regist": 181, "rations": 1166, "\u0120site": 89714, "\u0120http": 1345, "://": 4043, "01": 18067, "\u0120Gallery": 16115, "\u0120Zero": 3142, "\u0120downtown": 12465, "\u0120Los": 48655, "\u0120Angeles": 42969, "\u0120California": 76121, ".,": 66879, "\u0120dealer": 3663, "\u0120curator": 2800, "\u0120John": 164988, "\u0120Po": 23311, "chn": 4573, "\u0120contributions": 14150, "brow": 603, "\u0120movement": 49399, "\u0120exhibits": 5137, "\u0120heavy": 32630, "\u0120graffiti": 1499, "\u0120street": 27324, "\u0120partnered": 4613, "\u0120Brandon": 2936, "\u0120Cob": 4693, "urn": 11131, "\u0120Jim": 21653, "\u0120Ul": 7038, "ounded": 5746, "\u0120christ": 1491, "ened": 13369, "\u0120hours": 40673, "\u0120bar": 36251, "\u0120Mel": 19414, "rose": 4934, "\u0120current": 56429, "\u0120derives": 4074, "\u0120conceptual": 3007, "\u0120understanding": 14630, "\u0120creative": 11145, "\u0120process": 66560, "\u0120Kyle": 4730, "\u0120explains": 9053, "Zero": 709, "\u0120nothing": 17317, "--": 2926, "one": 61669, "\u0120something": 24594, "\u0120zero": 6034, "\u0120act": 35091, "Over": 7727, "\u012001": 1804, "\u0120developed": 74138, "\u0120relationship": 39888, "\u0120punk": 5633, "\u0120debuted": 15097, "\u0120bands": 18131, "\u0120Scream": 1528, "\u0120client": 6961, "ele": 5938, "\u0120divers": 4670, "ified": 19183, "\u0120aims": 6802, "\u0120evolved": 8489, "\u0120states": 53279, "\u0120\"[": 7621, "We": 22702, "'re": 14147, "]": 62021, "\u0120rock": 39650, "\u0120rebel": 5254, "\u0120those": 124811, "\u0120stupid": 1008, "\u0120call": 36034, "\u0120us": 23628, "\u0120frequ": 1486, "ented": 6647, "\u0120residents": 32793, "\u0120Raymond": 5892, "\u0120Pett": 1703, "ib": 63233, "\u0120David": 58184, "\u0120Lee": 29573, "\u0120Roth": 3875, "\u0120Tom": 35048, "ata": 46076, "\u0120du": 19624, "\u0120Plenty": 509, "\u0120Bel": 28357, "ushi": 2740, "\u0120diverse": 8996, "\u0120thought": 43334, "\u0120analogous": 1724, "\u0120Andy": 8925, "hol": 8118, "\u0120Factory": 4702, "Its": 4675, "\u0120eccentric": 2665, "\u0120mix": 9397, "\u0120artists": 40609, "\u0120patrons": 2847, "\u0120[": 58875, "Los": 2292, "']": 326, "\u0120answer": 8720, "\u0120though": 69839, "\u0120creations": 1258, "low": 12511, "\u0120than": 290685, "\u0120pop": 16891, "\u0120Williams": 26764, "\u0120Saber": 492, "\u0120exhibited": 9495, "\u0120Anthony": 12554, "\u0120Aus": 1347, "gang": 1364, "\u0120Gomez": 1321, "\u0120Bu": 9940, "eno": 4925, "\u0120Walter": 14579, "\u0120Robinson": 10676, "\u0120Richard": 39802, "\u0120Ham": 19588, "ble": 10953, "ton": 89262, "\u0120Fut": 3167, "ura": 22977, "\u0120Fred": 10952, "ase": 30186, "lli": 8020, "Notable": 4971, "\u0120past": 45304, "\u0120cur": 9656, "\u0120Ho": 15887, "pps": 2296, "\u0120Carlo": 3910, "\u0120McCorm": 1980, "ick": 37605, "Trivia": 589, "Soon": 2635, "\u0120na": 3725, "issance": 746, "\u0120allowed": 50910, "\u0120address": 16796, "\u0120escort": 5561, "\u0120fund": 13725, "\u0120exhibition": 19550, "\u0120documented": 7840, "\u0120Devil": 4286, "\u0120Daniel": 16750, "\u0120Johnston": 4158, "\u0120interviewed": 6110, "\u0120rumored": 1347, "\u0120haunted": 1484, "\u0120ghosts": 1343, "\u0120Joan": 6519, "\u0120Crawford": 3941, "\u0120Rock": 32021, "\u0120Hudson": 8437, "\u0120Rita": 2512, "\u0120Hay": 13248, "worth": 18250, "\u0120FC": 22415, "\u0120M\u00c3\u00bc": 5874, "Sp": 7970, "iel": 15922, "vere": 4812, "ig": 81918, "ung": 43162, "\u0120Ober": 6252, "haus": 8228, "yr": 17928, "um": 113486, "\u0120union": 22461, "\u0120number": 200441, "umer": 2019, "\u0120Spiel": 358, "\u012008": 1406, "\u0120attempt": 37322, "\u0120football": 62666, "\u0120side": 112503, "\u0120association": 21618, "\u0120creation": 25507, "\u0120independent": 41647, "\u0120Er": 21325, "ster": 31494, "\u0120Fu": 6481, "\u00c3\u0141": 8768, "ball": 19019, "club": 1507, "uh": 15474, "Sty": 590, "rum": 8748, "\u01201923": 15137, "\u0120West": 112910, "de": 30572, "sc": 20426, "hen": 37626, "band": 9488, "\u0120objections": 2299, "\u0120parent": 10044, "\u0120lower": 44988, "tier": 2110, "\u0120advancing": 4805, "\u0120far": 49564, "\u0120just": 107425, "\u0120conflict": 22142, "\u0120broke": 23273, "\u0120able": 65500, "\u01201943": 23399, "\u0120suspended": 11390, "\u0120war": 108892, "ied": 31116, "err": 5884, "he": 76829, "III": 4883, "\u0120Ver": 24678, "bands": 1313, "\u0120disappearing": 991, "\u0120level": 74644, "\u0120Amateur": 3418, "\u01201971": 27459, "\u0120capturing": 4425, "\u0120playoff": 6755, "\u0120put": 56135, "all": 61007, "iga": 10576, "II": 8563, "\u0120German": 106280, "\u0120restruct": 1118, "ured": 15121, "\u0120tier": 4969, "\u01202": 298250, "\u0120Bundesliga": 3057, "\u0120introduced": 53318, "igen": 4019, "\u0120replaced": 57334, "\u0120Am": 50056, "ber": 41840, "lig": 3384, "\u0120result": 77673, "\u0120good": 63236, "\u0120enough": 36092, "\u0120qualify": 8590, "\u0120circuit": 11165, "\u0120join": 30744, "\u0120Bl": 40979, "\u012090": 22627, "\u0120Berlin": 26926, "\u0120refused": 25327, "\u0120earned": 37908, "\u0120third": 113039, "\u0120finish": 21811, "\u0120That": 36083, "\u0120relegation": 5533, "\u0120competition": 45068, "\u0120failures": 2715, "\u0120appearances": 32059, "\u0120early": 199368, "\u0120rounds": 10924, "\u01201975": 28776, "\u01201977": 27327, "\u0120suffered": 29471, "\u0120steady": 3956, "\u0120decline": 13081, "\u0120plays": 29075, "\u0120Kre": 4592, "103": 1553, "\u0120SS": 11446, "\u0120Heavy": 7346, "\u0120Panzer": 2675, "\u0120Battalion": 15460, "Oper": 4819, "ational": 23090, "\u0120history": 115789, "\u0120unit": 37746, "\u0120Regiment": 21894, "\u0120Yugoslavia": 6411, "\u0120fight": 39076, "\u0120infantry": 11843, "\u0120November": 156524, "\u0120battalion": 10343, "\u0120converted": 20377, "\u0120back": 163886, "\u0120armoured": 2824, "\u0120Tiger": 5153, "\u0120training": 65940, "\u0120ordered": 32825, "\u0120give": 41346, "\u01201944": 26930, "\u0120Another": 24583, "\u0120arrived": 38098, "\u0120grounds": 17043, "\u012026": 61911, "\u0120ten": 53478, "\u0120Tigers": 7827, "\u0120103": 3796, "fitted": 1229, "\u0120Eastern": 29397, "\u0120Front": 14138, "\u0120III": 31049, "German": 8481, "\u012014": 125632, "\u0120redesign": 4438, "\u0120503": 465, "\u012039": 14415, "instead": 874, "\u0120complement": 3799, "\u012045": 27037, "\u0120loaded": 4572, "\u0120onto": 21602, "\u0120trains": 22303, "\u012027": 60187, "\u01201945": 31620, "\u0120Group": 55153, "ula": 20207, "\u0120sector": 20390, "\u012015": 177087, "\u0120fighting": 23474, "\u0120Battle": 36356, "\u0120Kamp": 3427, "fg": 360, "ru": 31819, "ppe": 7169, "ohn": 2309, "ke": 64118, "106": 1570, "\u0120Central": 52135, "\u0120Radio": 32610, "UT": 2527, "Central": 3137, "\u0120Following": 28677, "com": 36301, "\u0120relax": 1058, "\u0120programming": 16923, "\u0120requirements": 13404, "\u0120network": 44361, "\u0120overnight": 3172, "\u0120shows": 53330, "\u0120December": 156421, "\u0120announced": 105879, "\u0120closing": 9579, "\u0120Christmas": 17732, "\u0120Eve": 7918, "\u0120broadcasting": 9090, "\u0120licence": 4744, "\u0120UK": 55935, "\u0120regulator": 1365, "\u0120cited": 12754, "\u0120unfortunate": 1464, "\u0120midst": 2785, "\u0120recession": 1909, "\u0120reason": 23481, "\u0120decision": 43604, "\u0120consequ": 948, "profit": 8216, "ability": 13431, "\u0120anticipate": 588, "\u0120becoming": 42270, "\u0120viable": 3091, "\u0120foreseeable": 446, "\u0120future": 47215, "\u0120saying": 35438, "\u0120strong": 46608, "\u0120unfortunately": 1541, "\u0120middle": 34531, "\u0120worst": 7738, "\u0120memory": 22590, "\u0120We": 46660, "\u0120looking": 16698, "\u0120closely": 16514, "\u0120viability": 1091, "\u0120economic": 40283, "\u0120difficult": 28526, "Ni": 1428, "ocom": 544, "\u012024": 83661, "\u0120scheduled": 16808, "\u0120buyer": 1957, "\u0120revealed": 32225, "\u0120competitor": 3664, "\u0120Ni": 7323, "\u01202010": 141893, "\u0120neighbouring": 6287, "une": 14435, "\u0120FM": 11150, "\u0120co": 82848, "empl": 796, "aced": 6178, "\u0120share": 25847, "\u0120resources": 21305, "\u0120OF": 2886, "COM": 1986, "\u0120granted": 26685, "\u0120permission": 10273, "ocate": 869, "\u0120Programme": 4461, "\u0120management": 37650, "\u0120administrative": 16841, "\u0120engineering": 19813, "\u0120shared": 20323, "\u0120remained": 70377, "ially": 9150, "\u0120focused": 20173, "\u0120Preston": 4809, "\u0120Ley": 3187, "land": 89490, "ley": 120787, "\u0120synd": 6715, "ication": 6523, "\u0120fully": 23800, "UK": 4445, "RD": 698, "\u0120Bee": 3105, "\u0120Blackburn": 3066, "\u0120purchased": 31253, "\u0120planned": 30263, "\u0120merge": 3232, "\u0120East": 88204, "\u0120Lanc": 6987, "ash": 44252, "ire": 40886, "Three": 5916, "\u0120days": 88990, "\u0120ceased": 10552, "\u0120Drive": 7590, "time": 43907, "\u0120presenter": 3951, "\u0120Hilbert": 634, "\u0120Un": 26340, "gettable": 253, "\u0120Nat": 6998, "\u0120Cole": 6848, "\u0120106": 3835, "fm": 438, "\u0120simul": 2820, "cast": 9600, "\u0120ad": 19003, "verts": 1499, "68": 20848, "\u0120Near": 5309, "\u0120earthquake": 7474, "ologic": 2615, "\u0120setting": 20424, "\u0120Dead": 9178, "\u0120Sea": 27560, "\u0120Transform": 335, "620": 753, "\u0120transform": 4519, "\u0120fault": 5057, "\u0120spans": 2755, "\u0120Red": 57250, "\u0120Anat": 4570, "\u0120Fault": 1222, "\u0120southern": 41654, "\u0120extent": 11369, "adi": 14442, "\u0120Arab": 16808, "after": 8294, "ah": 89084, "\u0120portion": 21653, "\u0120runs": 42645, "\u0120160": 4955, "\u0120kilometers": 8424, "99": 16210, "q": 31575, "aba": 8204, "\u0120slip": 2623, "\u0120\u00c2\u00b1": 954, "mm": 46089, "\u0120per": 104149, "Effects": 902, "\u0120effects": 30395, "\u0120seen": 64528, "any": 21027, "\u0120present": 80749, "\u0120coastal": 12065, "\u0120Syria": 8756, "\u0120Gulf": 13210, "\u0120stands": 15796, "\u0120today": 39938, "\u0120destroyed": 30568, "\u0120Pale": 2773, "ose": 23379, "ism": 98795, "\u0120investigations": 5591, "\u0120rupture": 843, "\u0120beginning": 48675, "\u0120900": 4358, "\u0120magnitude": 4436, "0": 129982, "\u0120damage": 25740, "\u0120breaks": 7095, "Al": 25987, "arm": 20033, "\u0120Catherine": 8252, "\u0120Mon": 31617, "astery": 3454, "\u0120Sinai": 1594, "\u0120Peninsula": 7715, "inn": 18869, "\u0120farther": 2200, "\u0120west": 66760, "\u0120Egyptian": 9640, "\u0120coast": 29523, "\u0120Alexandria": 4790, "\u0120Cairo": 4480, "\u0120corner": 17435, "\u0120Mosque": 2811, "\u0120ibn": 5801, "\u0120al": 64409, "ust": 22316, "\u0120Se": 47258, "ologist": 16873, "\u0120Nicholas": 9454, "ys": 42559, "\u0120described": 78625, "\u0120account": 28039, "\u0120Ram": 22866, "allah": 1850, "\u0120destructive": 1929, "\u0120loss": 42496, "15": 56625, "\u0120deaths": 10385, "\u0120hundred": 17142, "\u0120boys": 15789, "\u0120expanded": 26513, "\u0120100": 80772, "\u0120Jerusalem": 11057, "\u0120roof": 19732, "\u0120Dome": 2148, "dis": 5350, "placed": 2835, "\u0120former": 132578, "\u0120affected": 16987, "\u0120apparently": 11993, "\u0120migrated": 3972, "\u0120otherwise": 13013, "\u0120minimal": 5433, "\u0120events": 63138, "\u0120event": 68431, "\u0120experienced": 15366, "\u0120section": 48454, "\u0120closer": 9968, "\u0120towns": 20492, "\u0120Valley": 35619, "\u0120destruction": 11061, "93": 14513, "\u0120Gaza": 3333, "58": 21928, "\u0120again": 120081, "\u0120causing": 18006, "ft": 71690, "\u0120left": 147295, "ateral": 1347, "\u0120offset": 2500, "\u0120Til": 2908, "\u0120Castle": 23276, "\u0120across": 70305, "\u0120Roman": 47637, "\u0120Byzantine": 7651, "\u0120building": 134498, "\u0120housed": 9892, "\u0120tank": 13047, "\u0120sustained": 7364, "\u0120displacement": 3023, "\u0120Million": 2732, "\u0120release": 73149, "\u0120Example": 377, "\u0120You": 34209, "\u0120single": 127053, "\u0120stated": 61277, "\u0120EP": 12933, "\u0120features": 56392, "\u0120remix": 6108, "ove": 11964, "\u0120Crit": 3868, "\u0120Static": 418, "\u0120Re": 49929, "ven": 26628, "ger": 29581, "\u0120Mike": 19486, "\u0120Mill": 17044, "rain": 6073, "\u0120Eli": 2129, "\u0120Fur": 3054, "\u0120uploaded": 2008, "Example": 1014, "\u0120\"'": 2211, "\u0120watching": 6535, "\u0120documentary": 18962, "\u0120rave": 892, "\u0120online": 26126, "\u0120interviewing": 1038, "\u0120illegal": 12777, "\u0120guy": 3911, "\u0120microphone": 1520, "\u0120reve": 894, "llers": 2227, "Sure": 345, "\u0120whole": 34130, "\u0120thing": 12725, "\u0120And": 46986, "\u0120ra": 2326, "Well": 3041, "\u0120wrong": 9980, "'.\"": 1285, "\u0120feels": 6383, "eless": 3206, "\u0120favorite": 8013, "Music": 13555, "\u0120confirmed": 25619, "\u0120Twitter": 6654, "\u0120filmed": 13032, "\u0120performance": 63995, "IB": 3566, "\u0120hosted": 23329, "\u0120Ben": 31863, "ss": 12018, "EV": 856, "O": 84264, "\u0120channel": 26087, "\u0120Lok": 4125, "\u0120Sabha": 4318, "ahar": 2583, "ashtra": 474, "Pl": 8671, "\u0120Text": 3122, "\u0120Format": 603, "Ah": 3099, "med": 14300, "agar": 7106, "ENG": 185, "akh": 12999, "\u0120Yes": 3821, "haw": 3592, "MIN": 260, "GEN": 240, "Fund": 1923, "kar": 5621, "\u0120Pand": 5060, "und": 28885, "lik": 1711, "MB": 3923, "JP": 1627, "Am": 11392, "rav": 12849, "ati": 19678, "Pr": 5773, "\u0120Pat": 19827, "FIN": 169, "abad": 10247, "sh": 39962, "war": 22866, "\u0120Save": 2104, "MS": 11760, "HS": 7468, "Bar": 7777, "jit": 1430, "\u0120Ann": 20455, "\u0120Paw": 2019, "eed": 4659, "irs": 5374, "arb": 2014, "ao": 23375, "aku": 9416, "hand": 11163, "ara": 59491, "ful": 17777, "\u0120Man": 62244, "oh": 28427, "\u0120Bh": 17642, "\u0120Patel": 1255, "uld": 1458, "ana": 72127, "SC": 11450, "Was": 736, "nik": 6970, "\u0120Muk": 4329, "rish": 3844, "na": 50258, "and": 122788, "rap": 9572, "Pot": 1916, "du": 14496, "\u0120Shant": 621, "aram": 3913, "Mut": 951, "tem": 3359, "\u0120Vil": 5646, "\u0120Bab": 10961, "ahan": 5924, "Dam": 1427, "\u0120Bark": 1847, "hing": 7334, "da": 14287, "ule": 14950, "\u0120Har": 34632, "Er": 4757, "Pat": 5012, "\u0120Vij": 4154, "\u0120Naval": 16193, "oli": 12731, "ew": 26143, "agn": 9118, "ath": 44287, "ch": 137819, "alk": 9748, "aran": 6059, "ji": 18582, "\u0120Bal": 24659, "\u0120Raj": 22178, "\u0120Shank": 3404, "J": 71215, "Gun": 1141, "amb": 26169, "ush": 16920, "ope": 11532, "Kar": 2603, "avan": 8551, "ith": 33952, "vir": 2488, "isha": 5701, "hed": 18174, "Nav": 1008, "ale": 48842, "\u0120Vid": 3183, "oba": 4475, "\u0120Ant": 28546, "hap": 900, "w": 103845, "days": 4791, "\u0120Nan": 6939, "asa": 9180, "op": 72293, "arg": 15492, "L": 135257, "\u0120Shiv": 2097, "\u0120Vish": 4133, "wan": 11498, "\u0120Zam": 3357, "\u0120Mang": 5193, "lu": 15706, "umbai": 315, "North": 8265, "Ram": 2382, "\u0120Na": 9973, "END": 427, "\u0120Shar": 6090, "East": 6226, "adas": 2109, "\u0120Kam": 11974, "West": 11322, "utt": 10791, "South": 9145, "De": 10480, "ora": 21169, "\u0120Mur": 12497, "ohan": 3378, "\u0120Raw": 7623, "pur": 13722, "Meg": 832, "att": 30637, "aji": 5504, "agh": 14533, "ob": 42990, "anded": 3045, "ENS": 396, "ury": 15320, "ants": 23176, "bar": 15672, "\u0120Hod": 2420, "aly": 13870, "awar": 2480, "asant": 1788, "wr": 1883, "Os": 3358, "\u0120Ar": 60892, "\u0120Tul": 3027, "Pand": 539, "Thor": 814, "\u0120Sand": 16868, "ip": 61634, "Par": 7472, "hani": 729, "\u0120Ash": 17658, "andra": 4042, "Anna": 1739, "\u0120Josh": 5288, "ud": 51881, "\u0120Saw": 3332, "tek": 1003, "js": 1518, "ax": 25153, "Rat": 1745, "iri": 9145, "Gov": 456, "ram": 30654, "\u0120Nik": 5574, "rak": 10294, "Sat": 1936, "Sol": 1989, "har": 17479, "\u0120Monday": 6739, "ya": 37772, "Th": 13044, "apse": 1455, "\u0120Gan": 4734, "Ward": 1087, "hang": 2706, "are": 41404, "ot": 95419, "MC": 6807, "PM": 4703, "\u0120Vit": 3008, "thal": 2810, "\u0120Des": 15774, "hm": 4203, "Y": 38159, "mal": 5589, "U": 65091, "tt": 15843, "11": 46117, "44": 21814, "\u0120pap": 7096, "\u0120election": 79026, "lection": 3166, "\u0120Lucius": 1526, "Pope": 1158, "\u0120Cel": 4159, "estine": 1079, "\u01208": 141574, "\u0120Rome": 25181, "\u0120pont": 1539, "ificate": 453, "\u0120successor": 13223, "\u0120shadow": 3926, "\u0120municipal": 14073, "\u0120revolution": 9301, "\u0120opposed": 22141, "\u0120secular": 6334, "\u0120rule": 29954, "\u0120Pope": 18391, "\u0120unable": 23308, "\u0120recover": 6587, "\u0120face": 34148, "\u0120demands": 8850, "\u0120Roger": 11355, "\u0120Sicily": 4037, "\u0120problem": 27581, "\u0120unresolved": 770, "\u0120because": 148293, "\u0120confirm": 3366, "\u0120privileges": 3164, "\u0120Innocent": 1513, "\u0120card": 18715, "inals": 3637, "\u0120elected": 72410, "\u0120Cardinal": 6831, "\u0120Ger": 10124, "ardo": 8286, "emic": 2822, "\u0120tit": 4624, "ulus": 4402, "\u0120Cro": 15779, "usalem": 418, "\u0120canon": 4760, "\u0120regular": 44874, "iano": 11683, "\u0120di": 32553, "\u0120Lu": 22270, "cca": 3291, "\u0120details": 15237, "\u0120exact": 8537, "\u0120electoral": 8958, "\u0120proceedings": 5559, "\u0120elect": 7517, "\u0120chancellor": 3073, "\u0120Holy": 18259, "\u0120See": 8145, "\u0120collaborator": 2153, "\u0120both": 233825, "\u0120assumed": 15632, "\u0120wanted": 36991, "\u0120continue": 32895, "\u0120policy": 37836, "\u0120friendly": 11335, "\u0120towards": 47477, "\u0120ep": 12723, "iscopal": 2252, "\u0120consec": 6593, "114": 1295, "\u0120Police": 23288, "\u0120Mobile": 5082, "Originally": 4179, "\u0120111": 4067, "\u0120fought": 21088, "\u0120Japanese": 54397, "\u0120Second": 36407, "Japanese": 4156, "\u0120Eighth": 2373, "\u0120Route": 21398, "\u0120Military": 17843, "\u0120Volunteer": 3831, "\u0120114": 2434, "Chinese": 6330, "\u0120Volunteers": 2158, "CP": 4960, "\u0120Chinese": 50968, "CC": 16567, "))": 3810, "\u0120Korean": 16975, "\u0120approximately": 37324, "\u0120consisted": 19372, "\u0120340": 1404, "\u0120341": 453, "st": 140688, "\u0120342": 428, "nd": 70527, "\u0120Reg": 18575, "iments": 9297, "It": 69076, "\u0120Brigade": 16830, "aw": 54950, "29": 23414, "\u0120formation": 22488, "\u0120Shen": 4748, "yang": 1985, "\u0120Mechan": 1745, "\u0120Infantry": 17358, "\u01201996": 47707, "\u0120reform": 17245, "\u0120Liberation": 4621, "together": 978, "\u0120divisions": 11952, "\u0120personnel": 15801, "\u0120Unit": 9272, "\u012086": 6094, "40": 31911, "\u0120mechan": 1837, "\u0120reserve": 16664, "\u0120direct": 32695, "\u0120headquarters": 21633, "\u0120chosen": 22483, "\u0120represent": 18653, "\u0120China": 54871, "\u0120Victory": 3819, "\u0120Day": 39574, "\u0120Parade": 3439, "After": 102712, "\u0120detach": 1254, "ments": 21481, "reg": 12776, "iment": 6167, "sized": 5095, "):": 8084, "\u0120Det": 3754, "achment": 2273, "g": 143426, "arrison": 1104, "\u0120Ding": 2062, "zhou": 4514, "\u0120Ba": 14414, "oding": 2316, "115": 1644, "United": 7979, "\u0120claimed": 41903, "\u0120lineage": 3186, "\u0120honors": 9295, "\u0120Center": 61925, "\u0120official": 59598, "\u0120certificate": 4926, "\u0120recognizes": 2980, "\u0120extending": 6953, "\u0120regiment": 13712, "\u0120held": 147018, "\u0120descended": 4460, "res": 57948, "ifles": 2085, "\u0120raised": 40305, "\u0120mismatch": 365, "\u0120stems": 3564, "\u0120unique": 23034, "\u0120armed": 17364, "\u0120Guard": 15259, "\u0120requires": 13680, "\u0120continuous": 8610, "\u0120militia": 6048, "\u0120presence": 27247, "\u0120proof": 6436, "\u0120lack": 31823, "\u0120units": 46356, "\u01201870": 12577, "\u0120First": 54718, "\u0120Maryland": 15186, "pred": 752, "ec": 28443, "essor": 2402, "\u0120rules": 21860, "\u0120becomes": 25799, "\u0120inactive": 2429, "\u0120terminated": 4660, "\u0120cannot": 24941, "rect": 1192, ",\"": 65622, "\u0120identical": 8014, "\u0120designation": 6785, "Revolution": 1066, "\u0120claims": 25979, "\u0120earliest": 16728, "\u0120protect": 20462, "\u0120frontier": 3868, "date": 2077, "\u0120companies": 43870, "\u0120leave": 35999, "\u0120Frederick": 13802, "\u0120Price": 6509, "\u0120response": 37219, "\u0120Continental": 5313, "\u0120Congress": 38652, "\u0120duty": 17058, "\u0120marched": 4646, "51": 21833, "\u0120miles": 69605, "887": 228, "\u0120report": 40913, "\u0120Washington": 58138, "\u0120efforts": 30803, "\u0120drive": 20426, "\u0120Boston": 30344, "\u0120These": 88471, "Mary": 4255, "\u0120400": 16621, "\u0120Line": 28207, "\u0120repeatedly": 7455, "\u0120charged": 16404, "\u0120numer": 1583, "\u0120superior": 7920, "\u0120force": 51756, "\u0120Long": 28952, "\u0120Island": 56560, "\u0120sustaining": 1233, "\u0120casualties": 8391, "\u0120allowing": 24077, "\u0120successfully": 20497, "\u0120evacuate": 1667, "\u0120bulk": 6181, "\u0120Manhattan": 9977, "\u0120nickname": 6886, "Old": 5616, "\u0120State": 129215, "\u0120descendant": 4193, "\u012029": 53773, "\u0120existing": 23336, "ager": 9431, "stown": 7090, "\u0120officially": 29151, "\u0120start": 52964, "\u01201886": 8520, "\u0120consolidation": 2284, "\u0120throughout": 63240, "\u0120must": 64848, "ered": 22506, "\u0120federal": 36947, "\u01201898": 10408, "\u0120assigned": 27946, "\u0120Spanish": 49049, "American": 28039, "\u0120Federal": 25277, "\u0120Service": 35726, "\u01201899": 10153, "\u0120serving": 34504, "\u0120outside": 50398, "\u0120continental": 4541, "\u012028": 62271, "\u01201916": 15196, "\u0120called": 205775, "\u0120Eagle": 6009, "\u0120Pass": 10730, "\u0120Texas": 42596, "\u0120Mexican": 16743, "\u0120Border": 3509, "\u0120Incident": 1347, "\u0120Two": 39136, "\u0120commanders": 4461, "\u0120Maj": 7885, "\u0120Milton": 4814, "\u0120Reck": 808, "future": 819, "key": 10717, "\u0120reg": 19292, "imental": 3472, "\u0120commander": 22662, "\u01201917": 18125, "\u0120Camp": 20455, "\u0120McC": 13927, "llan": 1845, "\u0120Alabama": 11691, "\u0120consolidated": 3817, "\u0120Fourth": 5415, "\u0120Fifth": 4930, "\u0120brought": 56571, "\u0120Jersey": 25696, "\u0120wasn": 8685, "\u0120old": 88049, "\u0120baptism": 2528, "\u0120engage": 7300, "\u0120repe": 2604, "lled": 5946, "\u01201918": 20206, "\u0120Me": 52654, "Ar": 22089, "gon": 5124, "\u0120offensive": 12760, "\u0120straight": 19380, "\u0120throwing": 4701, "\u0120elements": 30156, "\u0120suffering": 11969, "\u0120staggering": 410, "781": 276, "\u0120Arm": 12564, "ice": 38121, "\u0120signed": 86499, "\u0120Twenty": 4348, "inth": 3397, "\u01201919": 18673, "\u0120dissip": 1449, "\u0120authorized": 6525, "\u0120stream": 12417, "ace": 22024, "\u0120maneuvers": 1442, "\u01201936": 18613, "\u0120status": 36925, "\u0120previous": 52773, "\u0120design": 75873, "established": 5063, "\u01201941": 24705, "\u0120induct": 9489, "\u0120partial": 6774, "\u0120mobilization": 1229, "\u0120Fort": 31909, "\u0120completed": 67896, "processing": 681, "\u0120traded": 9791, "\u0120equipment": 27757, "\u0120repeat": 3763, "\u0120Hill": 46300, "ervation": 6466, "\u012022": 69444, "\u01201942": 24908, "\u0120participate": 15863, "\u0120Carolina": 27949, "\u0120Mane": 821, "vers": 21807, "\u0120Bland": 1301, "\u0120fill": 10073, "\u0120empty": 6951, "\u0120slots": 1677, "\u0120staged": 6468, "\u0120Kil": 10746, "mer": 35752, "\u0120shipped": 4452, "\u0120Port": 33518, "\u0120Emb": 3044, "ark": 21938, "\u0120Mary": 50405, "\u0120England": 89987, "\u0120attached": 15375, "\u0120preparation": 9105, "Day": 5031, "\u0120invasion": 17555, "\u0120further": 83541, "\u0120Their": 33206, "\u0120participation": 11811, "\u0120Normandy": 3372, "\u0120Campaign": 7870, "\u0120continued": 96913, "\u0120immediately": 31253, "\u0120Northern": 35014, "\u0120engaged": 19193, "\u0120forgotten": 3049, "\u0120chapters": 5617, "rest": 11270, "cest": 1673, "\u0120battles": 12457, "\u0120Operation": 13901, "\u0120Cobra": 1580, "\u0120Allied": 10127, "\u0120breakout": 1112, "Part": 5979, "\u0120plan": 46069, "\u0120mainland": 6716, "\u0120Europe": 62697, "\u0120capture": 16201, "\u0120port": 25003, "\u0120facilities": 29659, "\u0120ensure": 14446, "\u0120timely": 1301, "\u0120delivery": 8661, "\u0120enormous": 4573, "\u0120required": 48025, "\u0120supply": 22188, "\u0120invading": 1951, "\u0120continent": 4401, "\u0120need": 39862, "\u0120supplies": 12364, "\u0120hoped": 7287, "\u0120seize": 2715, "\u0120northwestern": 3389, "oat": 851, "\u0120surrender": 8519, "\u0120Brittany": 2575, "Officers": 221, "\u0120Team": 27604, "Photo": 301, "\u0120Taken": 694, "\u0120Left": 5594, "\u0120Right": 6178, "\u0120Lt": 4912, "\u0120Col": 30863, "\u0120Cooper": 9708, "110": 3793, "\u0120Field": 20815, "illery": 8533, "\u0120William": 78020, "\u0120Brun": 4117, "\u0120Louis": 35098, "\u0120Smith": 43502, "\u0120Major": 22651, "\u0120Glover": 1357, "\u0120Johns": 4386, "MI": 5328, "\u0120class": 57639, "\u01201931": 15369, "\u0120Miller": 16974, "\u0120Jr": 24142, ".;": 1852, "\u0120Harold": 7000, "\u0120Perkins": 2903, "\u0120Randolph": 2585, "oll": 26238, "\u0120Br": 41087, "atton": 2729, "General": 14547, "major": 1515, "\u0120Hans": 9074, "\u0120von": 21683, "\u0120der": 13877, "\u0120Kon": 9182, "ter": 61006, "mir": 4835, "\u0120Otto": 6034, "\u00c3\u00a4": 36662, "hler": 1774, "\u0120Kro": 1920, "\u0120Rh": 15655, "eland": 6218, "upon": 3159, "\u0120crossed": 9893, "\u0120Belgium": 12554, "\u0120Netherlands": 19672, "\u0120entered": 44245, "This": 49566, "\u0120unab": 504, "\u0120Ard": 3791, "ennes": 3375, "\u0120Host": 3163, "ilities": 3547, "\u0120declared": 27228, "\u0120occupation": 14034, "rem": 13977, "\u01201946": 22953, "with": 22074, "\u0120arrow": 2514, "\u0120added": 57798, "\u0120colors": 9247, "\u0120Additional": 3609, "\u0120decorations": 2756, "\u0120distinguished": 11327, "\u0120embro": 2046, "idered": 2676, "\u0120Laurent": 2578, "Sur": 3492, "Mer": 4532, "ix": 27758, "\u0120Guer": 2417, "\u0120palms": 931, "\u0120Silver": 13466, "\u0120Star": 34934, "\u0120Lo": 14251, "\u0120unlike": 8547, "\u0120retained": 15581, "\u0120changing": 12219, "\u0120retired": 33973, "\u0120broken": 15968, "\u0120separate": 34245, "\u0120brig": 5875, "ades": 24411, "\u0120Keystone": 991, "\u0120Pennsylvania": 32775, "\u0120Later": 38305, "\u012058": 8010, "\u0120entirely": 17376, "\u01201984": 32455, "\u0120prompting": 2967, "\u0120react": 4591, "ivation": 2143, "\u0120streamlined": 1007, "\u0120ready": 11512, "\u0120meet": 29289, "\u0120ever": 48192, "changing": 996, "\u0120defense": 19917, "\u01201985": 32677, "\u0120historic": 18918, "\u0120Virginia": 36253, "\u0120Elements": 1160, "\u0120brigade": 8189, "\u0120Batt": 4938, "alions": 5750, "\u0120batt": 5503, "\u0120Noble": 2756, "\u0120carried": 38523, "\u0120security": 29918, "\u0120duties": 15320, "\u0120protecting": 5041, "\u0120US": 100408, "\u0120installations": 3251, "\u0120mobilized": 1328, "\u0120Iraqi": 6899, "\u0120Freedom": 8808, "\u012048": 15526, "Mech": 1749, "\u0120Georgia": 24476, "\u0120spent": 49451, "\u0120Iraq": 14699, "\u0120conducted": 30821, "\u0120Sab": 11072, "\u0120bo": 6845, "\u0120Baghdad": 3554, "\u012050": 58744, "\u012065": 29146, "oor": 16925, "\u0120half": 76933, "\u0120Sunni": 1912, "\u0120Shia": 1794, "\u0120Co": 49768, "\u0120Task": 5146, "70": 19856, "\u0120Armor": 832, "\u0120Ft": 687, "\u0120Riley": 3304, "\u0120Kansas": 15934, "\u0120raids": 5554, "\u0120counter": 18605, "ED": 8392, "\u0120amb": 4030, "ushes": 1058, "ordon": 1144, "\u0120searches": 2225, "\u0120combined": 25257, "\u0120patrols": 2955, "\u0120remaining": 35569, "\u0120convoy": 6298, "\u0120missions": 11794, "\u0120Jordan": 11419, "awa": 17597, "\u0120Hit": 3780, "\u0120Ta": 13088, "add": 13785, "\u0120reduce": 17313, "\u0120losses": 12674, "%": 315441, "\u0120escorted": 3129, "\u0120previously": 43766, "\u0120mission": 31845, "%.": 18512, "ased": 5281, "ged": 12559, "\u0120175": 2505, "Fif": 797, "\u0120heritage": 12066, "\u0120lives": 32040, "\u0120Senate": 27286, "\u0120dedicated": 28439, "\u0120Memorial": 18437, "\u0120Highway": 19749, "Do": 4498, "\u0120project": 75541, "\u0120inst": 4948, "igated": 1998, "\u0120Ele": 4643, "tra": 4394, "\u0120Records": 35469, "\u0120product": 25237, "\u0120reluctantly": 2011, "\u0120agreed": 30949, "\u0120Morrison": 4461, "\u0120shave": 373, "\u0120off": 127802, "\u0120beard": 1251, "\u0120photo": 8802, "\u0120shoot": 8700, "\u0120label": 26189, "\u0120opted": 4171, "\u0120live": 68483, "\u0120Absolutely": 167, "\u0120Live": 15227, "\u0120Danny": 5905, "\u0120Sug": 2385, "erman": 11432, "\u0120memoir": 6368, "\u0120No": 70040, "\u0120Here": 13786, "\u0120Gets": 483, "\u0120Out": 23733, "\u0120Alive": 1745, "Ele": 1506, "\u0120obviously": 2306, "pretty": 589, "\u0120image": 23263, "\u0120larger": 37695, "\u0120guitarist": 10247, "\u0120Rob": 14617, "rie": 19101, "\u0120keyboard": 5418, "\u0120Manz": 1154, "\u0120drummer": 8404, "Although": 19681, "\u0120accustomed": 1026, "\u0120attention": 30717, "\u0120directed": 41386, "\u0120lead": 68980, "\u0120upset": 5825, "\u0120posing": 1629, "\u0120what": 115760, "\u0120small": 128972, "\u0120bust": 3351, "\u0120occult": 1393, "\u0120Crowley": 1628, "Critical": 9116, "\u0120reception": 14327, "\u0120review": 30396, "\u0120critic": 14834, "\u0120Dave": 11248, "\u0120Marsh": 4567, "\u0120although": 73228, "\u0120does": 64154, "\u0120contain": 15758, "irteen": 1299, "\u0120classic": 13151, "\u0120fails": 4128, "\u0120deliver": 6731, "\u0120purpose": 24476, "\u0120compiling": 1260, "friendly": 2275, "\u0120hits": 12562, "no": 23781, "\u0120magn": 3805, "\u0120op": 6103, "uses": 9751, "\u0120collection": 44212, "No": 13339, "\u0120End": 18294, "',": 19790, "\u0120Over": 23799, "Soft": 875, "...": 37729, "\u0120decidedly": 674, "\u0120uncom": 690, "mercial": 35, "\u0120here": 32213, "\u0120course": 45103, "Five": 2299, "\u0120isn": 4645, "\u0120funny": 3267, "Unknown": 294, "\u0120Soldier": 2008, "\u0120none": 10704, "\u0120Doors": 877, "\u0120Square": 16394, "Pres": 2763, "\u0120UCLA": 3505, "\u0120Film": 34373, "\u0120Television": 14458, "\u0120Archive": 2582, "\u0120Library": 24799, "14": 45757, "\u0120Punjab": 5329, "Early": 75225, "\u01201922": 16047, "\u0120amalg": 4430, "amation": 2242, "\u0120Pun": 5647, "abis": 1138, "\u0120Path": 5313, "\u0120All": 94856, "\u0120upheaval": 643, "\u0120Indian": 57306, "\u0120Mut": 4884, "iny": 10011, "57": 22639, "\u0120Lawrence": 12538, "\u0120Shah": 12649, "han": 21438, "\u0120Levy": 2431, "ium": 44711, "\u01201860": 11127, "62": 16640, "\u0120Abyss": 1085, "inian": 4074, "67": 21800, "\u0120extensive": 21341, "\u0120Frontier": 2965, "\u0120India": 71983, "\u0120Afghan": 3517, "78": 20868, "\u0120Egypt": 17376, "\u0120Anglo": 8953, "Egypt": 1426, "\u0120designated": 20166, "\u0120Cambridge": 18681, "\u0120Own": 2506, "\u0120d": 76869, "uke": 8921, "\u0120honorary": 10031, "\u0120colonel": 5766, "\u01201900": 17049, "\u0120suppress": 2833, "\u0120Box": 6729, "\u0120Rebellion": 2832, "\u0120exclusively": 9126, "athan": 2771, "\u0120Tibet": 3633, "\u01201904": 11710, "\u0120reinforcements": 3595, "\u0120Expedition": 6072, "Battle": 4648, "\u0120hon": 6985, "ours": 20782, "T": 123390, "orts": 6330, "ek": 34235, "inia": 2938, "\u0120Mas": 13539, "\u0120Ahmad": 5019, "hel": 19517, "\u0120Kand": 2265, "\u01201880": 13456, "\u0120Afghanistan": 9577, "\u0120Tel": 12516, "eb": 22049, "\u0120Mal": 39669, "pres": 4020, "\u01201915": 15168, "\u0120Jul": 3079, "\u0120Aub": 2122, "landers": 4995, "\u0120Macedonia": 3970, "uez": 5943, "\u0120Canal": 11363, "\u0120Meg": 5765, "idd": 11210, "\u0120Sharon": 3083, "abl": 4483, "\u0120Palestine": 7462, "\u0120Sha": 5882, "iba": 4096, "\u0120Kut": 2065, "tes": 5681, "iph": 6147, "\u0120Defence": 9641, "\u0120Khan": 17440, "\u0120Baghd": 183, "\u0120Mes": 7245, "opot": 2371, "amia": 1799, "\u01201914": 17564, "erv": 10324, "\u0120Persia": 2480, "\u0120NW": 2545, "17": 68270, "\u0120Nar": 8744, "\u0120Africa": 47828, "eren": 5547, "\u0120Wol": 4378, "che": 29008, "fit": 1739, "41": 23128, "ame": 19451, "\u0120Alam": 2763, "\u0120el": 9926, "\u0120Half": 4960, "\u0120Singapore": 17025, "42": 23213, "\u0120Hong": 22992, "\u0120Kong": 24719, "\u0120Asia": 24704, "\u0120Yu": 7353, "hid": 760, "aun": 12538, "\u0120Raz": 1889, "abil": 2883, "gd": 738, "\u0120Ng": 5032, "aky": 2082, "\u0120Im": 10338, "phal": 2000, "\u0120Bis": 1954, "\u0120Kang": 4553, "lat": 2428, "bi": 9745, "\u0120Koh": 3817, "ima": 19379, "\u0120Jess": 2286, "ami": 16781, "\u0120Village": 14491, "\u0120Songs": 7442, "ony": 20067, "wa": 19805, "\u0120Ky": 8733, "\u0120Ny": 7074, "\u0120Bridge": 22547, "\u0120Mag": 24279, "we": 30946, "oon": 27346, "\u0120Road": 62460, "egu": 1357, "itt": 31439, "\u0120Burma": 3747, "16": 57646, "33": 22621, "vel": 18917, "Prem": 2733, "ise": 42159, "\u0120series": 178698, "\u0120begins": 24405, "\u0120Modern": 13060, "\u0120era": 27861, "\u012031": 47354, "\u0120wedding": 10767, "\u0120Grant": 13327, "ville": 58033, "\u0120trades": 2661, "\u0120geographic": 3567, "\u0120unpop": 173, "ulated": 8806, "\u0120countryside": 4397, "\u0120conv": 5418, "uls": 7186, "\u0120Thirty": 2950, "\u0120Years": 9089, "Fl": 6464, "int": 27720, "\u0120goal": 50926, "\u0120short": 84302, "term": 13831, "\u0120placing": 7713, "\u0120complete": 39659, "\u0120technology": 34092, "\u0120modes": 4194, "\u0120charismatic": 1187, "box": 8824, "ns": 15179, "\u0120president": 59831, "\u0120quickly": 33300, "\u0120decides": 11196, "\u0120provide": 54942, "\u0120refuge": 4996, "\u0120displaced": 3896, "\u0120constant": 11005, "\u0120branch": 25444, "\u0120possible": 52181, "\u00e2\u0122\u0136": 98990, "\u0120Revolution": 17796, "150": 6473, "New": 23460, "vill": 2030, "\u0120undertake": 2667, "\u0120defend": 9315, "\u0120aid": 18300, "\u0120cavalry": 9550, "\u0120detachment": 3310, "\u0120Gustav": 4251, "olph": 2877, "\u0120Sweden": 18166, "\u0120Green": 40616, "\u0120fights": 5113, "\u0120convince": 4811, "\u0120pol": 5547, "By": 29310, "32": 25438, "\u0120alliance": 9584, "\u0120Jews": 20190, "\u0120manufacturing": 12799, "\u0120capabilities": 5485, "\u0120defeats": 3244, "\u0120Catholic": 44042, "\u0120armies": 6241, "\u0120draws": 4854, "designed": 1969, "\u0120concerted": 624, "rep": 3129, "ublic": 257, "\u0120cancer": 21541, "\u0120growing": 25445, "\u0120itself": 49548, "\u0120teaching": 25015, "\u0120needs": 20997, "\u0120protector": 1080, "buy": 466, "up": 67999, "\u0120determined": 19285, "\u0120retain": 7696, "gear": 970, "\u0120nineteenth": 6025, "century": 21685, "\u0120oper": 6096, "able": 65069, "Plot": 26902, "\u0120summary": 6849, "\u0120continues": 26406, "\u0120Most": 35292, "\u0120novel": 43971, "\u0120mach": 2352, "inations": 2719, "\u0120attempts": 22414, "\u0120Ric": 6926, "ieu": 5716, "\u0120null": 2154, "ify": 7838, "\u0120threat": 14181, "\u0120posed": 3137, "\u0120technological": 4003, "\u0120advantage": 15736, "Conf": 2560, "eder": 7268, "\u0120Principal": 4427, "\u0120completely": 24223, "\u0120changes": 40135, "\u0120squarely": 283, "\u0120Ost": 3737, "end": 36023, "\u0120sends": 4802, "\u0120em": 24253, "iss": 35977, "\u0120allies": 6905, "\u0120whom": 49230, "\u0120behind": 53483, "\u0120lines": 38168, "\u0120belong": 5339, "\u0120secret": 19246, "\u0120announces": 1877, "\u0120Four": 18664, "\u0120Fle": 4465, "ets": 32270, "\u0120Dutch": 29273, "\u0120falls": 12696, "\u0120voluntarily": 2176, "\u0120stays": 2732, "\u0120trapped": 4578, "\u0120Siege": 3207, "\u0120Amsterdam": 7657, "\u0120newly": 27168, "\u0120timeline": 1815, "\u0120diver": 4536, "\u0120greatly": 12565, "\u0120actual": 16190, "\u0120Century": 9390, "\u0120spies": 1353, "\u0120fair": 12734, "cycl": 2587, "oped": 3357, "\u0120textbooks": 2008, "\u0120courts": 14704, "timer": 203, "\u0120leaders": 28336, "\u0120hast": 1092, "\u0120head": 95643, "\u0120histories": 2268, "\u0120ordinary": 7219, "\u0120citizens": 20624, "\u0120going": 43279, "\u0120affairs": 12805, "\u0120effect": 38146, "\u0120fundamental": 7569, "\u0120societal": 1549, "\u0120methodology": 2503, "\u0120novels": 12007, "\u0120internationally": 7926, "\u0120characters": 38928, "\u0120perform": 22845, "\u0120too": 51760, "\u0120likely": 32959, "\u0120ground": 51050, "eye": 1509, "\u0120view": 33265, "\u0120stories": 28929, "\u0120build": 30617, "\u0120deep": 22511, "\u0120backdrop": 1849, "\u0120overarching": 543, "\u0120story": 73376, "\u0120Flint": 2698, "\u0120stating": 18864, "history": 1625, "\u0120messy": 279, "\u0120stuff": 3064, "\u0120linear": 6723, "\u0120narrative": 8199, "\u0120cleaned": 1445, "\u0120categorized": 1395, "\u0120sense": 21446, "\u0120individual": 41304, "\u0120actions": 21389, "\u0120behalf": 11353, "\u0120self": 43587, "interest": 1107, "\u0120essence": 2777, "\u0120ideal": 9530, "\u0120super": 18270, "\u0120controlling": 4952, "\u0120throttle": 759, "\u0120steering": 3180, "\u0120wheel": 10077, "\u0120heart": 29357, "To": 16682, "\u0120introducing": 4849, "\u0120development": 96832, "\u0120longer": 38809, "\u0120Much": 7499, "\u0120Fire": 17151, "RO": 2472, "ted": 8561, "\u0120correlated": 1551, "\u0120cases": 37676, "\u0120personalities": 3589, "\u0120referenced": 2764, "\u0120moreover": 812, "\u0120anthology": 3694, "\u0120happens": 4789, "\u0120ahead": 16181, "\u0120exposition": 1359, "\u0120RO": 767, "\u0120Navy": 38202, "\u0120Weber": 2991, "quel": 2608, "\u0120plot": 17122, "\u0120element": 12158, "\u0120threads": 1570, "\u0120sequel": 7071, "34": 23132, "\u0120Baltic": 4678, "Characters": 808, "List": 1447, "ictional": 1957, "Re": 34206, "ception": 20157, "Publisher": 384, "\u0120Weekly": 6604, "\u0120gives": 22585, "\u0120positive": 25500, "\u0120praised": 15731, "\u0120authors": 13919, "\u0120showing": 15616, "\u0120converts": 1806, "old": 50561, "\u0120Americans": 20151, "\u0120uncomfortable": 1535, "\u0120zeal": 945, "\u0120achieve": 13253, "\u0120blessings": 905, "life": 7798, "\u0120liberty": 2935, "\u0120happiness": 2569, ",'\"": 203, "helps": 202, "\u0120smooth": 7317, "\u0120stereotypes": 1527, "Book": 2608, "list": 5626, "\u0120mostly": 36320, "if": 49746, "\u0120takes": 36741, "\u0120pages": 9382, "\u0120turn": 41533, "\u0120cry": 2742, "\u0120intend": 1646, "\u0120reviewer": 4345, "\u0120Journal": 18144, "clean": 657, "\u0120cast": 39701, "\u0120hint": 1446, "\u0120danger": 7068, "Library": 958, "take": 1329, "\u0120speculation": 4104, "\u0120tale": 5333, "\u0120combines": 3179, "\u0120accurate": 6858, "\u0120bold": 3385, "\u0120leaps": 496, "\u0120imagination": 2738, "ocus": 1250, "mag": 3503, "azine": 1738, "\u0120Hard": 8932, "\u0120Best": 37883, "sell": 7609, "\u0120List": 8675, "\u0120row": 11533, "\u01202002": 63896, "\u0120topping": 995, "\u0120Paper": 3594, "backs": 3774, "\u0120Hy": 9098, "bit": 10215, "Hy": 2357, "\u0120Flor": 5952, "\u0120orbits": 1703, "\u0120Sun": 27917, "\u0120inner": 11119, "belt": 1453, "\u0120distance": 24232, "AU": 2120, "\u0120once": 68688, "246": 656, "\u0120Its": 38303, "\u0120orbit": 6717, "\u01200": 78506, "\u0120inclination": 1376, "\u0120respect": 14629, "\u0120e": 46973, "cl": 21649, "ipt": 3308, "\u0120identified": 24734, "\u01201928": 15994, "\u0120DE": 2314, "idel": 4263, "berg": 43389, "\u0120asteroid": 2523, "\u0120observation": 6809, "\u0120arc": 6044, "\u0120Lowell": 1934, "\u0120Observatory": 3706, "\u01201929": 17216, "\u0120SO": 2083, "\u012043": 11420, "\u0120prior": 33942, "\u0120discovery": 11789, "\u0120Hamburg": 6312, "Physical": 1641, "\u0120characteristics": 11407, "olen": 2511, "\u0120characterized": 9976, "type": 7408, "otation": 1108, "far": 2880, "\u0120rated": 9070, "\u0120rot": 6387, "\u0120light": 55507, "cur": 3771, "ve": 40315, "\u0120obtained": 25475, "\u0120phot": 4823, "ometric": 3425, "\u0120observations": 5726, "\u0120amateur": 10935, "\u0120astronomer": 2058, "\u0120Pierre": 8517, "\u0120Anton": 7724, "ini": 37399, "\u0120Light": 16730, "\u0120analysis": 23025, "defined": 1744, "\u0120rotation": 4975, "94": 23046, "\u0120brightness": 1360, "\u0120variation": 6776, "=": 7148, "iameter": 764, "\u0120surveys": 3706, "\u0120NASA": 5845, "\u0120Wide": 2417, "field": 60149, "\u0120Inf": 6835, "rared": 1083, "\u0120Survey": 7541, "\u0120Explorer": 1883, "\u0120subsequent": 21949, "\u0120NE": 2504, "OW": 2907, "ISE": 1034, "\u0120measures": 14671, "996": 279, "\u01209": 124631, "\u0120diameter": 10458, "\u0120surface": 35290, "28": 25791, "300": 13523, "\u0120Collabor": 1676, "\u0120Aster": 1431, "oid": 12928, "\u0120Link": 4964, "\u0120assumes": 2521, "\u0120st": 31591, "\u0120asteroids": 1059, "20": 54198, "\u0120calculates": 529, "\u0120absolute": 5248, "aming": 6662, "\u0120minor": 26855, "\u0120planet": 10110, "out": 41322, "\u0120father": 119417, "rer": 8122, "\u0120celebrating": 3153, "\u012070": 22936, "\u0120birthday": 8557, "\u0120naming": 6642, "\u0120citation": 2744, "\u0120Minor": 6029, "\u0120375": 816, "63": 12581, "\u0120Queensland": 16192, "\u0120colonial": 12652, "Elect": 4661, "\u0120Australian": 54640, "\u01201863": 9148, "\u0120Legislative": 9540, "\u0120Assembly": 30913, "Key": 1775, "\u0120dates": 16223, "Due": 6478, "\u0120problems": 36773, "\u0120communications": 9684, "\u0120hold": 27464, "\u0120City": 148927, "\u0120Wellington": 6926, "election": 10259, "\u0120multi": 17274, "member": 5026, "\u0120electorate": 2765, "\u0120Zealand": 37902, "\u0120Parliament": 34543, "\u0120resignation": 8327, "\u0120incumbent": 6289, "\u0120MPs": 3708, "\u0120Edward": 30763, "\u0120Pearce": 1658, "\u0120Tra": 9638, "\u0120general": 89066, "\u0120constitutional": 8608, "\u0120revision": 3294, "\u0120Minister": 53384, "\u0120Interior": 5121, "ems": 4909, "\u0120parliamentary": 10763, "\u0120Firstly": 669, "\u0120fixed": 13180, "\u0120seats": 18804, "\u0120House": 93851, "\u0120Representatives": 10528, "\u0120Secondly": 753, "\u0120abolished": 7153, "seat": 4419, "\u0120districts": 15903, "\u0120except": 20798, "\u0120favour": 10713, "\u0120thus": 45526, "\u0120representation": 10366, "\u0120geographically": 1335, "\u0120concentrated": 6838, "\u0120Third": 13109, "\u0120ensured": 2819, "\u0120simultaneously": 8105, "\u0120replacing": 12572, "\u0120staggered": 822, "\u0120Finally": 8439, "\u0120extended": 31827, "\u0120suff": 6574, "rage": 5477, "\u0120gradual": 2615, "\u0120extension": 16423, "\u0120conf": 10731, "essional": 839, "\u0120Coalition": 5004, "\u0120combining": 4028, "\u0120Anti": 6588, "\u0120Catholics": 5722, "\u0128": 12078, "\u0120Baron": 18967, "\u0120Mack": 9496, "\u0120herald": 3191, "hesis": 1984, "\u0120championed": 1200, "\u0120Abraham": 7320, "per": 31108, "\u0120altern": 3159, "\u0120liberals": 1117, "\u0120right": 79191, "\u0120socialist": 5193, "\u0120Ferdinand": 5564, "\u0120Dom": 6454, "wen": 6674, "\u0120Social": 21333, "\u0120Democratic": 27260, "\u0120rural": 20775, "\u0120Fr": 24854, "\u0120district": 69253, "Cand": 1227, "idates": 1331, "\u0120Prohibition": 1165, "\u0120Convention": 11940, "inson": 6223, "\u0120Hall": 66162, "\u0120Indianapolis": 5729, "\u0120Indiana": 14856, "029": 234, "\u0120delegates": 4623, "Clinton": 585, "isk": 10610, "\u0120nominated": 21860, "\u0120unanimously": 2861, "\u0120Brooks": 5344, "\u0120vice": 17203, "president": 4538, "\u0120ticket": 8183, "\u0120quarter": 22371, "million": 17866, "\u0120prohibition": 2493, "\u0120steam": 14641, "\u0120Labor": 9726, "\u0120nomination": 11253, "\u0120Grand": 44629, "\u0120Opera": 13321, "\u0120Cincinnati": 7712, "\u0120Ohio": 25366, "\u0120About": 14186, "\u0120attended": 58411, "\u0120foster": 3531, "\u0120Henry": 49878, "\u0120tax": 30173, "\u0120convention": 10276, "\u0120joint": 20580, "\u0120failed": 39075, "\u0120Cow": 7743, "rey": 14644, "\u0120Wake": 5071, "\u0120Victor": 10150, "\u0120Wild": 12587, "\u0120margin": 7762, "Green": 5557, "back": 19133, "\u0120entire": 41509, "\u0120Cleveland": 11912, "84": 21523, "\u0120outright": 2885, "\u0120seat": 36031, "\u0120conjunction": 6500, "\u0120Plains": 3834, "\u0120Democrats": 7863, "James": 8869, "\u0120Weaver": 2103, "\u0120handful": 3893, "\u0120endorsing": 625, "\u0120nominee": 3568, "\u0120dozen": 5960, "\u0120candidates": 16404, "\u0120apart": 10663, "\u0120fusion": 3982, "\u0120tickets": 5011, "\u0120Again": 5124, "\u0120vict": 1304, "\u01201888": 8848, "\u0120Michigan": 24431, "\u0120clear": 28085, "\u0120few": 95552, "\u0120Jones": 28440, "\u0120chairman": 22218, "\u0120committee": 24397, "\u0120session": 15394, "\u0120met": 60252, "\u0120Only": 14207, "\u0120Chairman": 14214, "\u0120nominations": 4704, "With": 21833, "\u0120DC": 13209, "asonic": 937, "\u0120labels": 4760, "\u0120126": 2067, "legates": 1064, "\u0120bolted": 566, "\u0120vote": 32191, "\u0120matters": 10712, "oting": 4379, "\u012064": 18501, "\u0120James": 71968, "\u0120Curtis": 4527, "\u0120Tennessee": 15237, "\u0120Peter": 45165, "igg": 4862, "inton": 6938, "qual": 1450, "\u0120Rights": 13801, "\u0120Equal": 1479, "\u0120Moines": 1256, "\u0120Iowa": 13016, "\u0120mail": 6728, "\u0120ballots": 2546, "\u0120counted": 3894, "\u0120310": 1023, "\u0120350": 5096, "va": 23791, "\u0120Lock": 4880, "wood": 44888, "\u0120Alfred": 11124, "\u0120Love": 27383, "Love": 4965, "\u0120Charles": 53643, "\u0120Wells": 7063, "\u0120NY": 11480, "Indust": 2338, "rial": 3879, "\u0120Reform": 6527, "\u0120Industrial": 8089, "\u012049": 15457, "Albert": 2333, "stone": 24484, "\u0120endorsement": 1977, "\u0120disinteg": 1805, "rating": 1336, "\u0120told": 37986, "\u0120Montgomery": 6168, "vertis": 970, "\u0120Arkansas": 8807, "\u0120Illinois": 22682, "\u0120Missouri": 16763, "Iss": 920, "ues": 18910, "level": 13468, "\u0120issue": 40421, "\u0120proposed": 35779, "\u0120dramatic": 8162, "\u0120reduction": 9638, "\u0120tariffs": 1236, "\u0120message": 13800, "\u0120contended": 1225, "\u0120tariff": 1200, "\u0120unnecessarily": 331, "\u0120unnecessary": 2462, "\u0120taxation": 2481, "\u0120unjust": 1394, "\u0120Republicans": 4977, "\u0120industry": 50016, "\u0120guarantee": 3245, "\u0120wages": 4027, "\u0120profits": 4803, "\u0120growth": 31119, "\u0120argument": 9168, "\u0120protection": 22114, "\u0120traders": 3738, "\u0120size": 50397, "\u0120stretching": 2233, "\u0120Tar": 11090, "iff": 16074, "\u0120practice": 45699, "\u0120practically": 2373, "\u0120meaningless": 591, "\u0120industrial": 25063, "cost": 2399, "except": 3004, "\u0120wool": 3480, "\u0120unders": 1080, "\u0120efficient": 7032, "\u0120Europeans": 3843, "\u0120Nevertheless": 7199, "\u0120sides": 23031, "Besides": 2267, "\u0120obvious": 5443, "\u0120dimensions": 4802, "\u0120possessed": 4515, "\u0120dimension": 4086, "\u0120strongly": 13463, "\u0120promoted": 35935, "\u0120candidate": 28415, "\u0120instantly": 2840, "\u0120labelled": 2173, "British": 5994, "\u0120antagon": 1451, "\u0120Irish": 35033, "\u0120voting": 10197, "\u0120bloc": 1237, "\u0120neatly": 428, "\u0120neutral": 6924, "\u0120pursuing": 4358, "\u0120punitive": 938, "\u0120Canada": 66554, "\u0120autonomous": 4021, "\u0120fishing": 12662, "\u0120rights": 54514, "\u0120dispute": 10523, "funded": 1994, "\u0120activists": 6829, "\u0120mounted": 11367, "\u0120energetic": 1906, "\u0120standards": 17246, "\u0120giving": 28403, "\u0120speeches": 3235, "\u0120porch": 3320, "hered": 3373, "\u0120tradition": 23308, "\u0120campaigning": 2439, "\u0120cabinet": 9589, "\u012075": 15440, "year": 79391, "\u0120Thur": 2834, "\u0120spear": 1994, "Blocks": 65, "\u0120Five": 11282, "William": 11357, "\u0120Wade": 3223, "\u0120Dudley": 3084, "09": 18977, "\u0120lawyer": 13041, "\u0120tire": 2119, "less": 28442, "\u0120campaigner": 651, "\u0120prosecutor": 2869, "\u0120fraud": 6402, "\u0120Benjamin": 8925, "\u0120Harrison": 9496, "\u0120Treasurer": 2457, "\u0120Republican": 25058, "\u0120Committee": 47463, "\u0120intense": 7328, "\u0120dead": 26091, "\u0120Although": 46954, "\u0120meddling": 278, "\u0120politics": 23224, "\u0120circular": 6046, "\u0120letter": 30063, "\u0120county": 33105, "\u0120chair": 15214, "\u0120telling": 8523, "div": 2307, "ide": 47450, "\u0120flo": 564, "aters": 4871, "\u0120Blocks": 604, "\u0120trusted": 2286, "\u0120necessary": 23221, "\u0120funds": 20590, "\u0120charge": 29183, "\u0120responsible": 33136, "\u0120our": 39236, "\u0120promised": 7702, "\u0120adequate": 4049, "\u0120funding": 23012, "empt": 2981, "ive": 34135, "\u0120strike": 15854, "fired": 1749, "\u0120distributed": 13953, "\u0120hundreds": 12312, "\u0120nationwide": 6209, "\u0120Given": 2982, "\u0120uns": 3479, "ory": 32147, "\u0120den": 7555, "ials": 7921, "\u0120thousand": 11465, "flo": 668, "\u0120sell": 16831, "\u0120perhaps": 14494, "-$": 211, "\u0120visible": 11765, "\u0120impact": 22470, "blocks": 603, "\u0120suggestion": 4338, "\u0120pious": 958, "\u0120buy": 12727, "iven": 2001, "\u0120stimulated": 1403, "\u0120printed": 11530, "urch": 3914, "ison": 18685, "good": 4257, "\u0120Sir": 40108, "\u0120Lionel": 2016, "\u0120Sack": 1346, "\u0120ambassador": 6880, "\u0120describing": 8757, "\u0120citizen": 7800, "\u0120asked": 37746, "\u0120upcoming": 6565, "\u0120indisc": 295, "reet": 1971, "\u0120suggested": 26841, "\u0120probably": 29088, "\u0120weeks": 39268, "\u0120voters": 9514, "\u0120exactly": 7744, "\u0120comparable": 4083, "Rum": 656, "\u0120bl": 9894, "under": 7558, "\u0120presidency": 5551, "\u0120removed": 31429, "\u0120Michael": 45769, "oine": 3587, "\u0120Walt": 5663, "\u0120Disney": 12039, "\u0120Gen": 16694, "uine": 674, "\u0120Original": 3729, "\u0120Band": 21219, "\u0120centers": 10869, "\u0120annex": 2119, "ivid": 1644, "\u0120Dakota": 7245, "\u0120Territory": 7531, "\u0120Italian": 46042, "\u0120Italy": 38938, "\u0120Chambers": 3325, "\u0120killings": 2582, "\u0120striking": 5913, "\u0120culminating": 2568, "\u0120shooting": 14868, "\u0120miner": 1292, "\u0120Bug": 3229, "\u0120Sard": 4079, "\u0120Participation": 568, "\u0120strongest": 3720, "\u0120headed": 15370, "\u0120Prime": 24211, "\u0120Giovanni": 5016, "iol": 7569, "\u0120intervene": 2010, "\u0120little": 51064, "\u0120predicting": 880, "\u0120die": 12772, "\u0120shook": 725, "\u0120confidence": 6532, "07": 19207, "\u0120Nem": 2684, "oks": 2686, "Statistics": 938, "\u01201907": 12275, "Overview": 7983, "\u0120contested": 8396, "\u0120teams": 55702, "\u0120MT": 2200, "\u0120Hung": 3075, "ria": 15731, "\u0120championship": 30728, "\u0120Chel": 3397, "ten": 18314, "ham": 63427, "\u0120Parliamentary": 4996, "\u0120Member": 13824, "\u0120Commons": 8538, "\u0120Kingdom": 42983, "\u0120post": 78909, "\u0120Stanley": 10256, "\u0120Finals": 4524, "Path": 1346, "Seattle": 762, "CHA": 892, "\u0120finishing": 18135, "\u0120Meanwhile": 10841, "\u0120advanced": 21683, "\u0120narrowly": 4365, "\u0120defeating": 12577, "\u0120Ottawa": 6668, "\u0120Senators": 3487, "game": 8334, "go": 17128, "HA": 4285, "\u0120Met": 17756, "rop": 18660, "olit": 2734, "\u0120champions": 9888, "Several": 7100, "\u0120Toronto": 22799, "\u0120Blues": 7790, "irts": 1271, "\u0120Jack": 27009, "\u0120Walker": 11806, "\u0120Eddie": 6196, "\u0120Carpenter": 2694, "\u0120substitute": 11023, "\u0120Frank": 27315, "oy": 45048, "ston": 16512, "\u0120Holmes": 6193, "ully": 3551, "\u0120Wilson": 20219, "23": 29234, "\u0120Rugby": 10998, "\u0120Football": 30707, "Season": 3658, "\u0120decided": 60081, "\u0120drop": 11630, "Union": 2390, "League": 5126, "\u0120conference": 23910, "\u0120Kes": 2151, "\u0120Kingston": 5610, "\u0120Cra": 3245, "\u0120Park": 88724, "\u0120eastern": 30283, "\u0120Hold": 2015, "erness": 802, "\u0120game": 168814, "\u0120Trinity": 9582, "\u0120defeat": 30531, "igan": 10496, "\u0120High": 86082, "\u0120joined": 106452, "\u0120Championship": 53007, "\u0120defeated": 47171, "udd": 8389, "off": 34300, "\u0120finished": 63516, "\u0120contend": 1037, "\u0120Challenge": 7808, "\u0120Leeds": 8780, "\u0120Hull": 5646, "\u0120Yorkshire": 9798, "\u0120Leigh": 3055, "\u0120County": 114525, "27": 25827, "\u01201927": 15359, "\u0120open": 64376, "\u0120cup": 9616, "\u0120Association": 69982, "\u0120Lamar": 1768, "\u0120Hunt": 7442, "\u0120Open": 23050, "\u0120Sven": 1713, "sters": 5305, "ampions": 1272, "yd": 11615, "ell": 53274, "\u0120players": 54316, "sl": 5542, "ids": 18711, "\u0120winner": 22649, "\u0120medal": 25364, "\u0120Anders": 2473, "son": 49128, "\u0120Karl": 12141, "sson": 7323, "\u0120Beng": 4542, "sten": 3517, "\u0120Ing": 4828, "ald": 22303, "\u0120Carl": 16760, "bl": 15156, "ll": 40553, "\u0120uprising": 4509, "\u0120Mongol": 3859, "\u0120Revolutionary": 5993, "\u0120begun": 12462, "\u0120implement": 5580, "left": 2393, "\u0120quick": 7524, "\u0120socialism": 2328, "\u0120Private": 5928, "\u0120transport": 21870, "\u0120forbidden": 3268, "\u0120livestock": 4171, "\u0120economy": 21671, "\u0120collect": 8695, "iv": 47431, "\u0120feudal": 2880, "\u0120nobles": 3084, "ropri": 1443, "\u0120Buddhist": 8350, "\u0120excessive": 4114, "\u0120taxes": 8494, "amas": 2824, "\u0120mon": 22990, "aster": 12291, "\u0120forcibly": 1751, "sponsored": 2227, "\u0120organizations": 24094, "\u0120networks": 11184, "\u0120neglect": 2479, "\u0120mis": 10649, "management": 1278, "ives": 22186, "ral": 20176, "\u0120heads": 13589, "\u0120Inner": 3003, "\u0120Xin": 2190, "jiang": 3304, "ris": 15961, "ings": 70623, "gs": 2520, "vs": 4592, "\u0120aim": 9997, "\u0120lasted": 12524, "Out": 4876, "line": 27013, "adic": 2734, "\u0120riots": 3956, "\u0120occurred": 26133, "western": 5222, "\u01201932": 15167, "\u0120Kh": 35488, "gan": 17676, "asha": 5969, "\u0120sum": 9162, "\u0120insurgents": 1931, "bat": 5008, "\u0120ya": 442, "\u0120arming": 393, "\u0120lay": 13192, "\u0120burning": 6383, "\u0120collective": 7260, "\u0120centres": 6511, "\u0120opponents": 8480, "\u0120youth": 30128, "\u0120actively": 7793, "\u0120religion": 18661, "\u0120rebellion": 7307, "\u0120dispersed": 2742, "ags": 4344, "\u0120Ark": 4012, "\u00c3\u00b6r": 7865, "kh": 12755, "rb": 1332, "\u0120establishment": 18646, "\u0120extraordinary": 4496, "\u0120commission": 17515, "\u0120Jam": 8200, "byn": 253, "\u00c3\u00bc": 50158, "\u0120deployment": 5308, "\u0120Ministry": 23812, "ba": 20469, "atar": 4189, "\u0120Main": 18451, "\u0120powers": 18561, "\u0120rebels": 6697, "\u0120withdraw": 6020, "\u0120resumed": 8922, "\u0120connection": 18817, "\u0120Tu": 10129, "\u0120155": 2040, "\u0120km": 6781, "\u0120garrison": 7057, "\u0120Ts": 11121, "leg": 17692, "\u0120numbered": 5783, "\u0120119": 3924, "\u0120herds": 1173, "\u012095": 8863, "\u0120farms": 6758, "\u0120dozens": 3812, "locks": 663, "\u0120rifles": 3748, "\u0120smaller": 29102, "\u0120grenades": 1486, "\u0120artillery": 13575, "\u0120armored": 2923, "\u0120provided": 60397, "\u0120USSR": 5006, "\u0120advisers": 1345, "\u0120suppressed": 2785, "Results": 1537, "Kh": 3146, "\u0120partly": 10270, "\u0120Alt": 7509, "\u0120Southern": 32813, "\u0120Gov": 3308, "\u0120quite": 18455, "\u0120700": 6667, "\u0120Defense": 12040, "zi": 9004, "\u0120condemned": 6168, "\u0120drum": 8654, "mart": 2593, "\u012035": 26201, "\u0120cooper": 2699, "atives": 4963, "\u0120document": 11745, "\u01208000": 671, "Total": 1170, "\u0120victims": 13881, "math": 5678, "Con": 14318, "ced": 11476, "\u0120authority": 21925, "PR": 6819, "\u0120Bolshe": 1647, "viks": 1596, "\u0120leadership": 26803, "\u0120stop": 27469, "\u0120reforms": 7534, "religious": 1756, "\u0120policies": 14845, "\u0120eased": 637, "\u0120nobility": 4452, "\u0120moderation": 541, "\u0120temporary": 13485, "\u0120almost": 52446, "\u0120erad": 1261, "icated": 10118, "\u0120Stalin": 4848, "\u0120pur": 6754, "ges": 19075, "Ireland": 4782, "\u0120Senior": 13265, "\u0120Final": 16376, "Route": 4183, "Dub": 1573, "lin": 27976, "\u0120easily": 16582, "\u0120Kerry": 3535, "\u0120semi": 24029, "final": 9920, "\u01201934": 16352, "\u0120Tr": 38021, "Summary": 1818, "\u0120crowd": 12180, "\u012036": 18705, "143": 883, "\u0120Gal": 23737, "way": 53943, "point": 12426, "\u0120Dublin": 14150, "born": 41452, "\u0120Fer": 12932, "riter": 1227, "\u0120Kelly": 11960, "\u0120wear": 10938, "\u0120mar": 12258, "\u0120white": 57289, "\u0120colours": 5781, "obby": 1446, "gg": 12794, "\u01201938": 19041, "\u01201925": 14823, "match": 2236, "\u0120games": 97110, "\u0120photograph": 4709, "\u0120exists": 10612, "\u0120aboard": 9057, "\u0120ship": 61221, "\u0120Atlantic": 20625, "\u0120America": 73098, "\u0120Mick": 3590, "\u0120Higgins": 2229, "\u0120Also": 25381, "\u0120Fox": 21362, "\u0120Din": 5681, "\u0120Sullivan": 6011, "\u0120Tad": 1629, "\u0120McCarthy": 3284, "\u0120Brune": 1873, "\u0120masse": 680, "\u0120Todd": 5647, "\u0120Ryan": 11889, "\u0120Board": 43312, "\u0120secretary": 16456, "\u0120Con": 24623, "naire": 553, "\u0120Brendan": 1723, "\u0120Burke": 4538, "\u0120goalkeeper": 4301, "\u0120Brennan": 1881, "\u0120Joe": 20926, "elle": 10414, "her": 44769, "addy": 3529, "\u0120Stephens": 2326, "\u0120Ralph": 6893, "\u0120Griffin": 3881, "\u0120Dun": 15239, "erm": 9224, "\u0120Mitchell": 9157, "\u0120Carey": 3626, "\u0120McDonnell": 1324, "\u0120Tommy": 6481, "\u0120Hughes": 7971, "\u0120trainer": 4079, "\u0120Eugene": 4649, "\u0120McL": 3741, "ough": 18395, "\u0120identities": 2465, "\u0120unknown": 19795, "36": 23051, "FL": 9749, "iership": 2180, "\u0120twelve": 16551, "\u0120plus": 11355, "\u0120player": 75931, "\u0120substituted": 2451, "\u0120return": 69352, "\u0120circumstances": 10298, "Te": 9969, "ams": 16378, "away": 9519, "\u0120matches": 34569, "home": 2318, "\u0120reverse": 6701, "Once": 4148, "\u0120round": 69347, "\u0120Prem": 2846, "\u0120specific": 31333, "\u0120conventions": 3338, "\u0120Page": 5652, "Mc": 9115, "Int": 3810, "yre": 2189, "\u0120System": 19242, "Grand": 3136, "Coll": 2419, "\u0120Melbourne": 17276, "\u012074": 6610, "For": 32253, "\u0120explanation": 5747, "\u0120see": 48523, "38": 24503, "anna": 15343, "\u0120collision": 3665, "\u0120populations": 11353, "222": 753, "\u0120Johannes": 5284, "\u0120body": 72252, "\u0120Zimmer": 1318, "ves": 18950, "\u0120Brian": 13681, "\u0120Joh": 6945, "\u0120Ware": 2064, "\u0120Lind": 8894, "60": 23727, "748": 237, "\u0120amplitude": 1244, "\u0120respectively": 24586, "\u0120threshold": 2921, "\u0120fast": 16591, "\u0120rotating": 2858, "based": 44714, "\u0120survey": 14539, "64": 25657, "21": 34464, "166": 1238, "192": 772, "\u0120derived": 16599, "Flor": 1839, "\u0120namesake": 2178, "anne": 4859, "speaking": 6777, "\u0120Paul": 58466, "\u0120unconventional": 1317, "planet": 192, "\u0120discovered": 33451, "\u01201935": 17305, "\u0120Luc": 10741, "ern": 26658, "\u0120Lug": 3152, "\u01201937": 18177, "\u0120Loc": 4594, "\u0120hence": 7655, "\u0120composing": 2408, "iter": 7397, "\u0120quart": 4111, "\u0120sequ": 1890, "entially": 1456, "atically": 1584, "\u0120planets": 2979, "\u01201978": 28266, "358": 476, "Third": 2039, "Roll": 1639, "ales": 17047, "Br": 6685, "stad": 4420, "\u0120Dra": 2266, "fn": 545, "Fred": 3872, "rik": 8513, "Fre": 2516, "vik": 2804, "Tr": 8981, "rig": 9904, "isle": 4812, "ims": 5662, "Lyn": 1321, "Start": 899, "Are": 1465, "iens": 3110, "\u0120Lyn": 4114, "ill": 49168, "ps": 24555, "\u0120Sn": 7474, "anger": 9530, "\u0120IF": 4117, "\u0120Viking": 2739, "Fourth": 814, "\u0120Ske": 2492, "iking": 1515, "\u0120Start": 1698, "Qu": 8191, "arter": 2494, "finals": 10970, "extra": 671, "Rem": 2726, "atch": 5949, "Sem": 2298, "\u0120hurricane": 4109, "Met": 3818, "eor": 833, "ological": 29997, "Morning": 527, "\u0120charts": 10492, "\u0120detected": 4661, "light": 8439, "\u0120disturbance": 1783, "\u0120Thomas": 55811, "\u0120Around": 8573, "UTC": 1743, "\u0120tropical": 9400, "\u0120depression": 7870, "north": 2366, "west": 13625, "neg": 1759, "ada": 34221, "\u0120Virgin": 9881, "\u0120Islands": 20787, "\u0120storm": 14779, "\u0120Passage": 1516, "\u0120bringing": 13517, "\u0120squ": 3729, "alls": 4221, "\u012044": 19069, "\u0120hour": 16649, "71": 20639, "\u0120Juan": 13678, "\u0120Puerto": 12576, "\u0120Rico": 9222, "\u0120developing": 20003, "\u0120southeastern": 4050, "\u0120Bahamas": 1573, "\u0120moderate": 6709, "\u0120rough": 5923, "\u0120seas": 3848, "\u0120cycl": 7694, "ward": 19530, "\u0120approach": 28211, "\u0120winds": 7525, "\u0120afternoon": 7666, "\u0120landfall": 1354, "\u0120Beau": 4898, "fort": 6020, "\u0120inland": 4828, "\u0120northeast": 13416, "\u0120Savannah": 2022, "\u0120peaked": 9770, "\u012073": 6231, "117": 1373, "\u0120fell": 28702, "\u0120inches": 8345, "\u0120mercury": 1888, "975": 374, "Pa": 2761, "\u0120Hurricane": 4886, "force": 4488, "\u0120witnessed": 4991, "\u0120Charleston": 4289, "akening": 242, "\u0120weak": 8813, "\u0120evolving": 1547, "\u0120ext": 6167, "rat": 9544, "par": 14065, "\u0120craft": 7690, "\u0120advised": 6239, "\u0120exercise": 9228, "\u0120caution": 2395, "\u0120subt": 3940, "\u0120Ocean": 14712, "\u0120approached": 10109, "30": 44221, "\u0120warnings": 2338, "\u0120extreme": 9731, "\u0120Miami": 13154, "\u0120Florida": 34855, "\u0120Cape": 17642, "atter": 6927, "\u0120morning": 22764, "\u0120Wilmington": 2140, "\u0120Fernand": 1291, "\u0120Beach": 19293, "\u0120dropped": 22573, "\u0120tide": 2913, "\u0120feet": 45083, "\u0120measured": 7727, "\u0120inflicted": 1901, "\u0120Damage": 1019, "\u0120coastline": 2701, "\u0120totaled": 1583, "\u0120USD": 2116, "\u0120fright": 784, "275": 999, "hour": 10323, "\u0120recorded": 71585, "347": 505, "\u0120mile": 23441, "\u0120Louisville": 4102, "66": 21925, "322": 530, "\u0120Early": 12323, "\u0120Monthly": 2146, "\u0120Weather": 3789, "\u0120Review": 13220, "\u0120evac": 1181, "uations": 1214, "\u0120indicate": 10319, "\u0120rains": 2026, "\u0120sparked": 2915, "\u0120disastrous": 2476, "\u0120flash": 4253, "\u0120floods": 3008, "\u0120inund": 978, "\u0120Carol": 6750, "inas": 4937, "\u0120Rain": 6981, "fall": 6087, "\u0120amounts": 7852, "\u0120exceeded": 3155, "380": 1505, "\u0120Idle": 631, "wild": 1100, "65": 15691, "525": 485, "ides": 23555, "\u0120mountains": 11551, "\u0120landslide": 1657, "\u0120Western": 52893, "\u0120railroad": 13352, "\u0120severed": 1751, "\u0120badly": 6229, "\u0120peak": 14103, "\u0120discharge": 4165, "\u0120flood": 9431, "\u0120Creek": 30677, "ako": 3134, "\u012099": 7766, "\u0120cubic": 4144, "800": 9766, "\u00c2": 16067, "\u0120perished": 1306, "\u0120Deep": 6103, "\u0120Gap": 2514, "bris": 383, "\u0120Flow": 1179, "\u0120Wat": 6529, "auga": 1485, "\u0120alone": 25878, "\u0120portions": 6299, "\u0120cut": 35301, "\u0120flows": 11110, "\u0120flooding": 5888, "\u0120421": 431, "\u0120stretch": 5987, "\u0120roadway": 2250, "\u0120Maple": 2935, "\u0120Springs": 8206, "\u0120Wil": 22506, "kes": 9308, "\u0120Flood": 2524, "\u0120bridges": 7510, "\u0120Caldwell": 1863, "\u0120Press": 21516, "\u0120amounted": 2366, "USD": 861, "\u0120Del": 23289, "\u0120flooded": 3480, "\u0120sections": 14804, "\u0120Dominion": 2076, "\u0120Hampton": 4117, "\u0120Roads": 3424, "121": 1349, "\u0120statewide": 3118, "\u0120Copper": 2035, "433": 348, "\u0120Em": 18241, "rin": 10612, "\u0120River": 98476, "\u0120cre": 4071, "sted": 5457, "\u0120above": 51280, "\u0120Mountain": 18675, "\u0120rivers": 11106, "\u0120streams": 6077, "\u0120overfl": 559, "\u0120washing": 1866, "\u0120landsl": 728, "\u0120blocked": 5681, "\u0120roads": 16516, "\u0120Several": 14781, "\u0120highways": 3656, "\u0120Norfolk": 8286, "\u0120Asheville": 820, "\u0120involving": 14030, "\u0120oil": 33176, "\u0120screw": 2212, "\u0120Scar": 2316, "rough": 7667, "\u0120Point": 18979, "\u01201947": 22205, "\u0120ice": 20265, "\u0120hockey": 11687, "\u0120CD": 22034, "KA": 2422, "\u0120Moscow": 18344, "pox": 1567, "\u0120outbreak": 9411, "\u0120marked": 21307, "\u0120milestones": 609, "\u0120mass": 24992, "\u0120vaccination": 977, "\u0120Within": 9069, "\u0120Public": 31751, "\u0120Health": 26296, "\u0120proc": 2003, "\u0120vaccine": 2137, "\u0120inoc": 587, "350": 3048, "\u0120adults": 10574, "\u0120vaccinated": 230, "\u0120rapid": 10937, "\u0120credited": 13494, "\u0120limiting": 2822, "\u0120Bar": 51808, "\u012047": 11102, "\u0120rug": 637, "\u0120merchant": 10873, "\u0120Maine": 8437, "\u0120wife": 84038, "\u0120boarded": 1962, "\u0120bus": 22520, "\u0120Mexico": 36619, "\u0120vacation": 3027, "\u0120trip": 15770, "\u0120ill": 13978, "\u0120headache": 682, "\u0120neck": 8414, "\u0120pain": 14045, "\u0120red": 44669, "\u0120rash": 736, "\u0120checked": 1913, "town": 9995, "\u0120hotel": 19543, "\u0120sight": 8504, "seeing": 733, "\u0120shopping": 8286, "\u0120fever": 4077, "\u0120pronounced": 4303, "\u0120admitted": 16283, "\u0120Bellev": 1541, "ue": 39072, "\u0120Hospital": 28529, "\u0120Will": 20514, "\u0120Parker": 9245, "icable": 948, "\u0120disease": 23986, "\u0120hospital": 32561, "\u0120admission": 5151, "\u0120differential": 2914, "\u0120diagnosis": 4324, "\u0120reaction": 13766, "since": 2914, "\u0120proprietary": 2123, "\u0120powd": 332, "\u0120aspirin": 375, "ery": 20267, "\u0120mult": 6538, "iform": 4716, "\u0120Kap": 5760, "osi": 2267, "\u0120var": 3172, "\u0120eruption": 2379, "\u0120scar": 2931, "yp": 3831, "\u0120exposure": 9151, "\u0120ruled": 17173, "\u0120bi": 20690, "opsy": 880, "\u0120skin": 12301, "\u0120lesions": 1602, "\u0120reveal": 6816, "ieri": 3415, "\u0120bodies": 17058, "\u0120characteristic": 7639, "\u0120tests": 11959, "\u0120diagnosed": 5401, "'d": 9749, "\u0120earlier": 44360, "\u0120supportive": 2264, "\u0120care": 37005, "\u0120condition": 20578, "\u0120worsened": 1272, "Ep": 3356, "idem": 1136, "iology": 7268, "Two": 11065, "\u0120patients": 19787, "\u0120floor": 29332, "\u0120discharged": 3416, "\u0120soon": 54178, "month": 9491, "\u0120baby": 9660, "\u0120girl": 20454, "\u0120treated": 12300, "roup": 3354, "hma": 1633, "\u0120Ac": 10662, "osta": 1946, "\u0120worker": 7382, "umps": 2538, "hospital": 409, "\u0120Bi": 13153, "ops": 12377, "\u0120les": 2742, "ion": 61861, "\u0120showed": 26763, "\u0120establishing": 10374, "\u0120Department": 60396, "\u0120notified": 1927, "\u0120contacts": 4815, "\u0120autopsy": 1101, "\u0120results": 35039, "examination": 513, "\u0120demonstrated": 9907, "\u0120case": 73683, "\u0120index": 6010, "\u0120patient": 10661, "\u0120concern": 11821, "\u0120department": 27671, "\u0120tracking": 3998, "\u0120everybody": 2242, "\u0120stayed": 14948, "\u0120immediate": 11379, "\u0120guests": 8846, "\u0120Guests": 642, "\u0120gone": 12285, "\u0120doctors": 6610, "\u0120tracing": 915, "\u0120passengers": 15349, "\u0120stops": 7500, "\u0120destinations": 2919, "\u0120Warn": 1117, "\u0120tracked": 2357, "\u0120ultimately": 20493, "Others": 829, "\u0120contact": 20978, "\u0120Hosp": 2200, "itals": 2315, "identally": 1636, "\u0120orderly": 883, "\u0120read": 24599, "mission": 7925, "\u0120Three": 22371, "\u0120male": 33952, "pped": 4335, "\u0120transported": 6499, "\u0120surgery": 11867, "\u0120sequest": 707, "\u0120prevent": 23863, "\u0120illness": 10203, "oping": 3721, "\u0120cough": 631, "\u0120Hayes": 4303, "\u0120Conv": 2659, "cent": 8174, "\u0120Home": 21441, "\u0120Children": 14125, "\u0120nursing": 4540, "\u0120facility": 23607, "brook": 5541, "\u0120subsequently": 39973, "\u0120infection": 6523, "\u012062": 7493, "\u0120nun": 2037, "\u0120treatment": 30144, "\u0120Carmen": 2834, "was": 8329, "ene": 29166, "\u0120contacted": 4330, "\u0120husband": 41339, "\u0120departure": 11716, "\u0120healthy": 5426, "ination": 13872, "\u0120Mayor": 13730, "yer": 9214, "\u0120Commissioner": 9285, "\u0120Israel": 30703, "\u0120Weinstein": 933, "\u0120informed": 9280, "\u0120vacc": 190, "inate": 5611, "\u0120250": 10767, "\u0120doses": 1698, "\u0120emergency": 12128, "\u0120pharmaceutical": 2896, "\u0120commitment": 7184, "\u0120accomplished": 6250, "\u0120task": 14265, "\u0120putting": 7860, "clock": 2010, "\u0120clinics": 2301, "\u0120hospitals": 7183, "\u0120schools": 59809, "\u0120drawn": 14607, "\u0120Cross": 25227, "duty": 1014, "\u0120firefighters": 1450, "\u0120disbanded": 7408, "\u0120vast": 9575, "\u0120Air": 68256, "\u0120Raid": 1512, "\u0120Warden": 1103, "\u0120door": 16230, "door": 2641, "\u0120urge": 1150, "\u0120print": 12002, "Be": 9602, "\u0120sure": 7688, "!\"": 11104, "\u0120advertised": 2562, "\u0120clinic": 3650, "\u0120emphasized": 3675, "\u0120More": 22836, "\u0120600": 10275, "\u0120Yorkers": 355, "Mor": 4112, "bid": 1325, "\u0120mortality": 3957, "Tw": 3024, "elve": 927, "\u0120Seven": 10071, "\u0120oldest": 19330, "\u0120youngest": 11114, "\u012046": 10951, "cephal": 1908, "itis": 7141, "\u0120inflammation": 1649, "\u0120brain": 15817, "\u0120spinal": 2116, "\u0120cord": 3901, "\u0120resulting": 25594, "\u0120tissue": 6845, "\u0120examined": 5444, "\u0120fatalities": 1549, "\u0120diseases": 8329, "\u0120nervous": 4172, "\u0120clearly": 10298, "\u0120related": 38469, "\u0120complications": 3827, "\u012066": 8494, "\u0120se": 21984, "\u0120infected": 4147, "\u0120infants": 2416, "\u0120ec": 2976, "ema": 5284, "\u0120generalized": 1378, "\u0120additional": 39958, "Ben": 4725, "jamin": 1200, "\u0120Cohen": 4385, "\u012041": 12449, "\u0120Newark": 3392, "\u0120Nancy": 5530, "\u0120Jean": 21480, "\u0120Vander": 1283, "ho": 13011, "of": 49291, "\u0120Providence": 3889, "\u0120receiving": 21327, "\u0120Disease": 1726, "\u0120Control": 8218, "vacc": 215, "\u0120fat": 5415, "ality": 17075, "\u0120contributed": 20898, "\u0120substantially": 4301, ".'": 9983, "\u0120data": 46765, "\u0120estimates": 4982, ".)": 28435, "scripts": 52, "Even": 3789, "\u0120Harry": 15124, "\u0120Truman": 2213, "\u0120brief": 16209, "\u0120reporters": 3205, "There": 51044, "\u0120transmitted": 4117, "\u0120temporarily": 8358, "\u0120lived": 45836, "\u0120relatives": 6456, "\u0120Trent": 4606, "\u0120Camden": 2791, "\u0120Neither": 2249, "\u0120traced": 4127, "\u0120Yankees": 5105, "\u0120pitcher": 4918, "\u0120Bill": 30958, "\u0120miss": 4618, "via": 3938, "\u0120Stein": 7030, "\u0120Bronx": 2959, "\u0120nurse": 4578, "\u0120representing": 15581, "\u0120pleaded": 3140, "\u0120guilty": 10849, "\u0120unlawful": 1464, "\u0120medicine": 13806, "\u0120assault": 12281, "\u0120possession": 10409, "\u0120hyp": 4760, "\u0120needle": 1984, "\u0120sentenced": 11502, "\u0120jail": 8191, "\u0120associated": 39793, "\u0120dram": 2772, "\u0120Columbia": 26397, "\u0120Pictures": 6957, "\u0120movie": 35606, "\u0120Killer": 1813, "49": 23314, "\u0120NS": 3235, "WR": 4425, "\u0120winger": 1179, "\u0120Ron": 9070, "\u0120Roberts": 8185, "\u0120tries": 15819, "\u0120Les": 11213, "\u01201954": 19759, "\u0120Bob": 21092, "\u0120Fame": 13815, "ee": 36220, "\u0120Vic": 8298, "\u0120Hey": 3267, "52": 21874, "53": 21230, "\u0120Fighting": 3333, "\u0120Ill": 5118, "\u0120basketball": 20661, "Regular": 1192, "Under": 9333, "\u0120Com": 18624, "bes": 3950, "\u0120coming": 27609, "\u0120consecutive": 15228, "place": 8469, "\u0120finishes": 3598, "\u0120NCAA": 10763, "\u0120Tournament": 10045, "\u0120program": 84608, "\u0120powerful": 20695, "\u0120dominant": 9077, "\u0120Johnny": 9131, "\u0120Kerr": 2967, "\u0120honorable": 1569, "\u0120mention": 9637, "\u0120Ir": 7916, "oras": 1689, "red": 42036, "Unfortunately": 730, "\u0120lose": 10726, "\u0120Big": 28873, "\u0120Ten": 15048, "\u0120hands": 22817, "\u0120ranked": 20287, "\u0120lineup": 5505, "\u0120Irving": 3471, "\u0120Clive": 1833, "\u0120Max": 17580, "oper": 8251, "\u0120forward": 24560, "\u0120slot": 4731, "\u0120Peterson": 3276, "\u0120fam": 815, "Red": 6788, "\u0120Minnesota": 15709, "cher": 15149, "rera": 1790, "\u0120Pan": 19381, "amer": 9156, "\u01201953": 19703, "\u0120racing": 16395, "\u0120Sport": 8764, "scar": 1924, "\u0120race": 62208, "xt": 5127, "\u0120Gut": 2668, "\u00c3\u00a9r": 6417, "rez": 7614, "\u0120Chi": 6085, "\u0120Ci": 3139, "ihu": 2079, "ua": 20560, "\u0120stages": 14338, "\u0120kilometres": 17357, "\u0120182": 1199, "\u012060": 33342, "race": 6435, "\u0120Sports": 21088, "\u0120Stock": 11197, "\u0120classes": 23138, "\u0120subdiv": 3470, "ided": 8329, "\u0120Small": 7885, "\u0120groups": 59038, "\u0120compete": 14918, "\u0120split": 22584, "\u0120capacity": 28074, "\u01201600": 2821, "\u0120cc": 767, "\u0120stock": 19543, "213": 643, "\u0120accommodate": 7625, "\u0120huge": 13618, "\u0120participants": 11010, "\u0120breeds": 2406, "Going": 673, "\u0120Ferrari": 3094, "\u0120slender": 2250, "\u0120points": 66288, "\u0120Jaguar": 1581, "\u0120neither": 10411, "\u0120manufacturer": 7705, "\u0120entries": 4380, "\u0120snatched": 290, "\u0120Cov": 4981, "entry": 7247, "Race": 1373, "Both": 5625, "\u0120Lincoln": 16582, "\u0120highly": 30447, "\u0120factories": 5207, "\u0120swept": 4016, "\u0120respective": 7912, "\u0120dominated": 10417, "\u0120Cars": 2136, "\u0120Fang": 1841, "\u0120Argentina": 12212, "\u0120Bron": 2417, "oni": 10289, "\u0120Pin": 6645, "\u0120Far": 18918, "\u0120Jos\u00c3\u00a9": 10383, "arte": 4127, "\u0120Carlos": 8982, "\u0120Guatemala": 3285, "\u0120Porsche": 1778, "\u0120550": 1912, "\u0120Coup": 725, "\u0120Chuck": 4413, "\u0120Stevenson": 2577, "\u0120Clay": 4940, "\u0120Kra": 4236, "\u0120Chevrolet": 2194, "\u0120210": 2092, "\u0120distinction": 7893, "\u0120competitors": 5087, "driver": 876, "\u0120pac": 1902, "ote": 14145, "\u0120Mercedes": 3227, "Benz": 1596, "\u0120vind": 975, "\u0120alternative": 18028, "\u0120drivers": 8782, "\u0120notably": 14611, "\u0120route": 43830, "\u0120safer": 1604, "\u0120Fel": 6299, "\u0120Bon": 18950, "\u0120Pier": 5321, "uff": 10497, "\u01201951": 18912, "\u0120warning": 7427, "\u0120signals": 7433, "\u0120road": 61097, "\u0120remind": 971, "\u0120themselves": 40176, "\u0120hazards": 1508, "\u0120missed": 10283, "\u0120Enter": 1991, "\u0120Sil": 9930, "\u0120encountered": 7100, "\u0120pavement": 1128, "\u0120impacted": 2179, "ido": 7076, "\u0120Fab": 7255, "riz": 2194, "\u0120Lap": 2751, "\u0120MM": 1325, "etta": 7195, "\u0120secured": 10825, "\u0120thereby": 7853, "ello": 6635, "\u0120Manufacturer": 135, "\u0120pair": 19525, "\u0120minutes": 36079, "\u0120averaging": 3537, "\u0120169": 1175, "221": 666, "105": 2040, "149": 807, "\u0120teammates": 3867, "\u0120Luigi": 2218, "gio": 2445, "\u0120podium": 2861, "\u0120Sc": 31994, "eria": 4372, "\u0120Eug": 4056, "\u0120Cast": 15990, "otti": 3543, "rift": 1593, "\u0120Ireland": 41634, "\u0120Grey": 8585, "hound": 2574, "\u0120Racing": 8889, "Marsh": 1643, "\u0120Barton": 3356, "\u0120Stadium": 18193, "\u0120Ex": 22043, "eter": 17662, "\u0120susceptible": 2239, "\u0120closure": 8067, "\u0120taxing": 388, "\u0120outwe": 302, "ighed": 451, "\u0120attend": 17478, "ances": 12382, "\u0120unt": 4618, "enable": 882, "\u0120Club": 54841, "NG": 3123, "RC": 10559, "\u0120banner": 3636, "\u0120turnover": 1739, "\u0120\u00c2\u00a3": 36537, "55": 23700, "RA": 10136, "\u0120grey": 8141, "\u01201926": 14752, "\u0120Francis": 18644, "\u0120Gentle": 1541, "\u0120net": 10945, "\u0120increased": 44740, "119": 1747, "ring": 17996, "\u0120Arena": 7912, "\u0120operating": 26359, "\u0120Colonial": 4660, "\u0120Stores": 1511, "\u0120Ltd": 14423, "\u0120remains": 39920, "\u0120relinqu": 2431, "ishes": 8649, "\u0120Managing": 1924, "\u0120Director": 30887, "\u0120Lucas": 6353, "Ford": 1251, "\u0120Spartan": 1522, "\u01201957": 20988, "\u0120Derby": 7931, "\u0120Du": 14972, "\u0120Leader": 5945, "\u0120voted": 17370, "Comp": 4221, "itions": 16317, "ask": 12603, "\u0120Kern": 1775, "ctic": 2100, "\u0120schedule": 9801, "\u0120flown": 4706, "\u0120London": 113638, "\u0120Tony": 15672, "\u0120Dennis": 6258, "awn": 5489, "\u0120dog": 12443, "\u0120qualified": 15101, "\u0120Cl": 36626, "oth": 22814, "\u0120Gold": 27299, "\u0120Charl": 4439, "\u0120trials": 10048, "\u0120successive": 4702, "\u0120justified": 2578, "\u0120Prix": 12438, "alth": 3027, "ow": 47468, "\u0120champion": 18235, "\u0120Laure": 4581, "\u0120Wim": 4554, "bledon": 3681, "\u0120surprisingly": 1987, "\u0120stud": 2592, "\u0120fourteen": 6588, "\u0120races": 26852, "\u0120Wembley": 2478, "\u0120televised": 3235, "\u0120BBC": 28278, "News": 2287, "Sc": 10371, "bush": 1586, "500": 30579, "\u0120shortly": 21333, "\u0120Ces": 1985, "witch": 475, "\u0120victory": 41685, "\u0120MB": 3882, "\u0120saved": 9145, "\u0120stadiums": 1011, "\u0120Without": 5256, "\u0120demolished": 11373, "El": 11278, "\u0120Jol": 1344, "\u0120stood": 15974, "\u0120trial": 28356, "\u0120manager": 39023, "\u0120White": 52686, "Not": 6048, "\u0120widespread": 11212, "\u0120rigging": 842, "\u0120destroying": 5311, "\u0120evidence": 42624, "\u0120Tracks": 1618, "\u0120disqualified": 1774, "\u0120money": 49339, "\u0120trophies": 1250, "\u0120affect": 9629, "\u0120betting": 1795, "Der": 2098, "\u0120runner": 7824, "\u0120Tim": 20209, "\u0120stolen": 6824, "enn": 18860, "\u0120Ros": 17683, "\u0120safely": 3666, "\u0120van": 18148, "\u0120carrying": 14888, "\u0120crashed": 4886, "\u0120unsuccessful": 10335, "\u0120ante": 1518, "\u0120favourite": 6722, "\u0120Solar": 3822, "\u0120Prince": 30348, "ipper": 6525, "\u0120Call": 10796, "anan": 1533, "\u0120invitation": 5092, "\u0120featuring": 25293, "ally": 36287, "patrick": 1377, "\u0120Oaks": 2348, "irie": 1787, "\u0120Champion": 10152, "mont": 11274, "enny": 8149, "\u0120heat": 14700, "\u0120lengths": 4781, "\u0120seconds": 14136, "\u0120recording": 35106, "\u0120525": 647, "\u0120yards": 24630, "\u0120Burnett": 1671, "\u0120owning": 1683, "\u0120Pig": 2235, "alle": 8260, "\u0120renamed": 29291, "\u0120Wonder": 3995, "\u0120Hon": 11612, "\u0120appointments": 2993, "\u0120Commonwealth": 13314, "\u0120realms": 980, "\u0120reward": 4247, "\u0120highlight": 3742, "\u0120countries": 54145, "\u0120supplements": 1303, "\u0120Gazette": 2992, "\u01201961": 22250, "\u0120celebrate": 6797, "\u0120passed": 42655, "\u0120mark": 12898, "\u0120Australians": 3059, "\u0120advice": 10269, "\u0120prem": 4633, "\u0120Australia": 71503, "\u0120list": 40730, "\u0120recipients": 2179, "\u0120displayed": 10557, "\u0120styled": 1954, "\u0120honour": 11698, "\u0120arranged": 13873, "Knight": 787, "\u0120Knight": 10420, "\u0120etc": 20773, "Military": 4615, "\u0120Civil": 29433, "\u0120appropriate": 9913, "1963": 2814, "\u0120Liverpool": 12909, "*": 6745, "\u0120Coun": 2518, "cill": 2029, "\u0120seeking": 10995, "\u01201960": 53067, "\u0120term": 61394, "\u0120therefore": 27122, "\u0120comparisons": 1981, "1965": 3106, "\u0120Under": 31867, "\u0120Hur": 7004, "ling": 39526, "\u0120eighteen": 5218, "\u0120difference": 13751, "\u0120composition": 14599, "\u0120Mun": 12265, "\u0120spirited": 686, "outh": 6229, "\u0120Wick": 3180, "\u0120Ulster": 4423, "\u0120organised": 9769, "\u0120Down": 11008, "\u0120joining": 17417, "\u0120provincial": 12454, "pins": 392, "rim": 10304, "1970": 6791, "istar": 627, "\u00c3\u012f": 205, "\u0120Kl": 8820, "aks": 9811, "1972": 3609, "ames": 8004, "\u0120Conservative": 11353, "MP": 8219, "\u0120Boyd": 3470, "enter": 3597, "\u0120appointed": 82507, "\u0120Aviation": 6780, "\u0120Authority": 11401, "\u0120Conservatives": 3037, "\u0120Norman": 10808, "\u0120Lam": 7568, "ont": 32438, "\u01201997": 48110, "\u0120Chancellor": 5072, "quer": 3381, "\u0120Premiership": 1931, "1973": 3670, "\u0120Slim": 1665, "\u0120Houston": 14456, "Sing": 3663, "Fran": 3849, "oise": 2877, "rr": 1181, "\u0120Rose": 18841, "mary": 1603, "\u0120Cas": 13371, "Dou": 2448, "bles": 6124, "ona": 19725, "\u0120/": 24884, "\u0120Pam": 3077, "\u0120Tee": 712, "arden": 4442, "\u0120Fran\u00c3\u00a7": 1852, "\u0120Betty": 4258, "1975": 3906, "etition": 1480, "\u0120mod": 7099, "Every": 3442, "\u0120Teams": 2048, "\u0120draw": 22438, "\u0120If": 33185, "\u0120tied": 11414, "\u0120scored": 51653, "\u0120crowned": 4763, "\u0120relegated": 7414, "Team": 2654, "gart": 3390, "\u0120Tennis": 3542, "\u0120Bor": 10268, "ussia": 5780, "upp": 5806, "ert": 30642, "aler": 1496, "\u0120SV": 2614, "\u0120Hann": 2941, "over": 22596, "\u012096": 7030, "\u0120winners": 10186, "\u0120SC": 9218, "\u0120Bayer": 1524, "\u012005": 1124, "ding": 4204, "legged": 1258, "irm": 5751, "\u0120Cant": 9134, "\u0120tornado": 2774, "anton": 3190, "\u0120torn": 5043, "adoes": 1284, "cell": 10420, "\u0120thunder": 2272, "storm": 2748, "\u0120Bush": 12599, "nell": 4744, "\u0120broad": 15721, "\u0120conver": 1969, "gent": 4934, "onic": 19484, "\u0120crop": 4959, "ocy": 3665, "clone": 1426, "\u0120Trees": 1268, "\u0120upro": 483, "oted": 6870, "\u0120structural": 7330, "\u0120varied": 6415, "\u0120windows": 15099, "\u0120buildings": 48737, "\u0120partially": 9920, "\u0120funnel": 1370, "\u0120cloud": 5004, "\u0120spotted": 4761, "\u0120pm": 3433, "\u0120Prairie": 2865, "\u0120complex": 34618, "\u0120combination": 15248, "bur": 6263, "sts": 5162, "\u0120touched": 2503, "\u0120grew": 33615, "\u0120ag": 8644, "arian": 18524, "\u0120Fulton": 1856, "andering": 773, "\u0120eas": 1361, "\u0120roughly": 12693, "\u0120Fi": 3309, "\u0120elevator": 2499, "\u0120leveled": 748, "\u0120blown": 2555, "\u0120Total": 3128, "\u0120damages": 4183, "250": 6918, "\u0120Chicago": 43272, "\u0120Ted": 6545, "\u0120Fuj": 3081, "ita": 24970, "\u0120surveyed": 2881, "\u0120path": 17723, "\u0120wide": 40400, "\u0120su": 6921, "ction": 6784, "\u0120spot": 16322, "\u0120multiple": 32799, "\u0120vortex": 565, "Before": 9838, "\u0120lifted": 4423, "burst": 597, "\u0120proceeded": 6870, "\u0120break": 26993, "\u0120proximity": 5238, "\u0120accompanying": 4583, "\u0120exceptionally": 1928, "\u0120roared": 104, "\u0120essentially": 7858, "\u0120heavily": 18889, "\u0120damaging": 3129, "\u0120devastated": 2954, "\u0120127": 1989, "\u0120businesses": 16440, "\u0120block": 21659, "\u0120swath": 219, "\u0120severely": 7383, "\u0120damaged": 16495, "\u0120require": 15523, "azing": 1239, "\u0120residential": 13782, "\u0120frame": 11883, "\u0120300": 19707, "\u0120trailers": 1454, "\u0120Horton": 1633, "\u0120Manor": 4646, "ixty": 1114, "nine": 2096, "\u0120Straight": 1205, "\u0120remainder": 11889, "25": 37004, "\u0120Power": 18191, "\u0120deployed": 10860, "\u0120immense": 2451, "\u0120overwhelming": 2769, "\u0120disaster": 7916, "\u0120stores": 16436, "\u0120selling": 15728, "\u0120food": 43719, "\u0120forced": 43617, "ishable": 365, "\u0120tr": 18964, "ashing": 2926, "\u0120non": 95378, "idents": 2288, "arms": 2150, "\u0120substantial": 11414, "\u0120crops": 7454, "\u0120Banner": 2171, "\u0120length": 34512, "\u0120sq": 1523, "\u0120potential": 29798, "DP": 13857, "\u0120--": 4755, "\u0120integrating": 1365, "\u0120intensity": 4831, "\u0120width": 5927, "value": 1210, "\u0120150": 18243, "Science": 1238, "\u0120benefits": 11350, "\u0120meticulous": 608, "\u0120renowned": 6984, "\u0120severe": 14549, "\u0120expert": 8602, "\u0120interactions": 5904, "\u0120micro": 14220, "\u0120learned": 16281, "\u0120meteor": 3373, "ologically": 3501, "\u0120recent": 33703, "\u0120concept": 27200, "\u0120Outbreak": 162, "although": 4745, "\u0120breaking": 9794, "\u0120connected": 22650, "\u0120regardless": 5755, "\u0120Conversely": 1414, "\u0120seems": 17936, "\u0120intensify": 534, "\u0120coincided": 2435, "\u0120pure": 7300, "35": 28567, "\u0120Touch": 2281, "\u0120dec": 11200, "imated": 1841, "\u0120travers": 2519, "\u0120founder": 20081, "juries": 423, "\u0120forty": 8104, "1976": 3695, "oral": 9377, "\u012069": 6608, "\u0120constituencies": 2903, "\u0120increase": 39241, "\u0120deposit": 3237, "\u0120rising": 10061, "200": 18645, "Campaign": 1391, "\u0120124": 2037, "name": 3096, "isan": 2756, "\u0120Justice": 25441, "\u0120PK": 1424, "\u0120Joint": 7051, "\u0120Opposition": 2429, "\u0120cooperate": 1815, "\u0120polls": 3002, "\u0120independents": 721, "\u0120prominent": 28937, "iam": 12914, "\u0120Tong": 5939, "long": 14460, "serving": 1432, "\u0120MP": 14344, "1978": 3826, "\u0120Buenos": 5982, "\u0120Aires": 6154, "\u0120Aut": 7262, "\u0120Oscar": 6093, "1979": 3973, "Men": 5438, "\u0120Inter": 20451, "ld": 21956, "\u0120Barclays": 696, "\u0120Bank": 34856, "\u0120Ground": 6312, "aling": 8474, "Women": 3523, "National": 9586, "\u0120Clubs": 1871, "University": 3945, "\u0120Ang": 12090, "lia": 6713, "\u0120Norwich": 3631, "1982": 3968, "\u0120SEC": 2922, "\u0120Women": 34209, "\u0120Basketball": 7284, "\u0120Lexington": 2775, "\u0120Kentucky": 13444, "Kent": 1289, "ucky": 2334, "\u0120beating": 9444, "ournament": 958, "\u0120denotes": 1301, "\u0120overtime": 3225, "1983": 4332, "\u0120Bradford": 5219, "\u0120Metropolitan": 10714, "\u0120Thursday": 4070, "\u01201983": 30986, "\u0120council": 29347, "1984": 4214, "\u0120Dallas": 10830, "Ke": 3815, "\u0120Finland": 10084, "\u0120McLaren": 1930, "\u0120driven": 10639, "iki": 10223, "aud": 20555, "\u0120Pro": 36230, "\u0120score": 33055, "Bel": 5674, "\u0120Honda": 3051, "\u0120turbo": 2064, "charged": 1973, "\u01201967": 27677, "\u0120Ren": 12648, "\u0120Arn": 4183, "oux": 3119, "\u0120lap": 10422, "\u0120pit": 7539, "\u0120lane": 3841, "\u0120electrical": 9925, "\u0120warm": 8216, "\u0120Angel": 10147, "\u0120Lotus": 2035, "\u0120Good": 19263, "\u0120tyres": 1384, "\u0120filled": 13729, "\u0120crashes": 1742, "\u0120+": 14409, "\u0120degrees": 14153, "\u0120Celsius": 724, "\u0120track": 57965, "\u0120Argentine": 5798, "\u0120conceived": 5543, "\u0120demonstrate": 5410, "world": 5246, "class": 23216, "\u0120overcame": 979, "\u0120weekend": 10673, "\u0120rumors": 2822, "\u0120cancellation": 2674, "\u0120tight": 5268, "\u0120twist": 2342, "\u0120Fair": 17988, "\u0120Grounds": 1267, "\u0120help": 68359, "\u0120Chris": 18006, "ook": 10748, "\u0120featured": 60268, "\u0120hair": 14225, "\u0120curves": 3556, "\u0120generally": 41482, "though": 3811, "\u0120chic": 610, "\u0120tighter": 542, "\u0120issues": 44352, "\u0120crumbling": 458, "\u0120rally": 5302, "cross": 3152, "\u0120bub": 683, "bling": 1967, "\u0120laps": 5536, "\u0120Friday": 9078, "\u0120Nigel": 2274, "\u0120pole": 6099, "\u0120rou": 1143, "hest": 1896, "\u0120Nelson": 10687, "iqu": 7439, "\u0120wondered": 718, "\u0120oppressive": 835, "noon": 1053, "\u0120temperatures": 8030, "Dallas": 815, "vo": 9771, "\u0120grid": 6059, "\u0120Back": 11658, "\u0120Mario": 5883, "\u0120Andre": 5205, "tti": 3305, "\u0120teammate": 5980, "\u0120Ronnie": 2491, "\u0120revolutionary": 6296, "\u012079": 5842, "\u0120Renault": 2338, "\u0120celebrity": 4372, "\u0120Saturday": 12958, "irling": 3024, "\u0120Jimmy": 9951, "\u0120Carter": 10548, "\u0120VIP": 1263, "\u0120suite": 2973, "\u0120never": 73614, "\u0120shaken": 826, "\u0120surprise": 7473, "due": 2282, "\u0120belief": 10565, "\u0120Formula": 5823, "\u0120weren": 1952, "\u0120Indy": 1999, "\u0120NASCAR": 3770, "\u0120am": 29320, "\u0120usual": 8356, "minute": 9672, "\u0120Jacques": 5379, "ite": 57881, "\u0120delayed": 8241, "\u0120canceled": 3485, "lap": 1425, "\u0120Can": 19008, "\u0120repairs": 6345, "hoe": 1915, "\u0120digging": 1746, "\u0120asphalt": 1697, "dry": 906, "\u0120cement": 4485, "\u0120arrange": 2427, "\u0120boycott": 2580, "\u0120insisted": 5551, "\u0120don": 18595, "\u0120fuss": 191, "'ll": 8322, "\u0120complain": 1077, "\u0120bind": 2667, "\u0120go": 62986, "'ve": 11840, "\u0120Track": 4345, "\u0120you": 72627, "\u012b": 19036, "\u0120speaking": 10516, "Bernie": 173, "\u0120Ecc": 2677, "estone": 4428, "\u0120want": 22584, "\u0120disappointed": 2867, "\u0120fans": 23012, "\u0120viewers": 10680, "\u0120Larry": 7116, "\u0120Hag": 2944, "wing": 17604, "\u0120television": 68583, "\u0120waving": 563, "\u0120green": 24287, "\u0120flag": 15540, "\u0120parade": 4912, "Man": 14214, "\u0120Derek": 3217, "\u0120Warwick": 3019, "\u0120overt": 4219, "fire": 7053, "\u0120pulled": 8668, "\u0120alongside": 29822, "\u0120pass": 25754, "\u0120spin": 8435, "\u0120challenge": 13927, "\u0120cylinders": 1868, "\u0120Lot": 3394, "\u0120pack": 4574, "Ros": 1956, "\u0120trading": 11870, "\u0120gotten": 1603, "\u0120big": 23873, "\u0120mistake": 4308, "\u0120tires": 1887, "\u0120fading": 823, "itting": 3986, "\u0120ninth": 8025, "\u0120retire": 5396, "\u0120wall": 26982, "Pro": 11727, "second": 4920, "\u0120struck": 13259, "\u0120rim": 1938, "\u0120inherited": 8848, "\u0120thanks": 7830, "\u0120special": 64109, "\u0120skull": 4474, "\u0120cap": 11708, "\u0120cooling": 3671, "\u0120limit": 11751, "\u0120reached": 54256, "\u012068": 6993, "\u0120comfortably": 1192, "\u0120vis": 2380, "\u0120belts": 1563, "\u0120hanging": 3970, "\u0120slowed": 2235, "\u0120le": 16699, "aped": 2699, "\u0120black": 61506, "\u0120push": 6967, "\u0120collapsed": 5965, "\u0120exhaustion": 1080, "\u0120sixth": 17813, "\u0120factor": 13186, "\u0120hosting": 5617, "\u0120constructed": 33662, "\u0120Circuit": 7957, "\u0120Americas": 4358, "\u0120capital": 40474, "\u0120Austin": 11159, "\u0120Tex": 2866, "measures": 642, "\u0120cope": 2316, "cool": 2296, "cap": 2245, "\u0120device": 15610, "car": 12827, "lo": 16211, "\u0120Gh": 10518, "ani": 47929, "\u0120fifth": 26878, "\u0120bucket": 1130, "\u0120Hu": 13294, "\u0120Rot": 8037, "heng": 2625, "\u0120dashed": 488, "\u0120spectator": 888, "\u0120cups": 1370, "\u0120pouring": 905, "\u0120regions": 20346, "\u00e2\u0122\u00a6": 5472, "enna": 3899, "\u0120hitting": 5620, "\u0120pits": 2934, "\u0120furious": 2035, "\u0120engineer": 15224, "\u0120Sy": 14931, "monds": 1614, "\u0120understand": 11552, "\u0120differently": 2810, "\u0120believe": 20264, "\u0120persuaded": 4887, "\u0120inspect": 1148, "\u0120find": 48837, "\u0120barrier": 4623, "\u0120crash": 9864, "\u0120mere": 3931, "\u0120recalled": 9487, "\u0120amaz": 258, "ement": 10394, "That": 6149, "\u0120precision": 2863, "\u0120really": 20274, "\u0120Don": 33087, "\u0120forget": 2648, "...\"": 4673, "\u0120EC": 4768, "AC": 23817, "\u0120Hockey": 11408, "\u0120Men": 25942, "\u0120Ice": 8781, "Format": 2183, "\u0120automatically": 5808, "\u0120seeds": 6662, "\u0120percentage": 9697, "\u0120qualifier": 2183, "\u0120assorted": 583, "\u0120qualifiers": 1668, "\u0120seed": 10642, "\u0120eighth": 9593, "\u0120seventh": 12428, "\u0120determine": 14111, "\u0120permitted": 8846, "\u0120mini": 5487, "\u0120sudden": 5181, "death": 1331, "\u0120produce": 31795, "\u0120opening": 43660, "\u0120semifinals": 4058, "\u0120lowest": 8030, "\u0120losers": 579, "\u0120receives": 7986, "\u0120automatic": 6849, "\u0120bid": 9709, "acket": 1190, "\u0120rese": 1127, "eded": 7612, "Note": 2032, "\u0120*": 4899, "All": 20705, "None": 598, "1989": 5054, "ts": 49078, "hire": 23906, "\u01201989": 37772, "1992": 5523, "oha": 2252, "\u0120Bowl": 14658, "Kansas": 991, "\u0120#": 33840, "\u0120matchup": 623, "\u0120Nebraska": 6131, "\u0120thr": 3942, "\u0120Corn": 7643, "hus": 4016, "kers": 2804, "\u0120tails": 1404, "\u0120Colorado": 15356, "\u0120Jay": 13381, "hawks": 1016, "\u0120Eight": 5193, "\u0120Conference": 27464, "\u0120BYU": 1097, "\u0120Diego": 15464, "\u0120Hawaii": 9059, "\u0120Wins": 1975, "\u0120Utah": 9605, "\u0120Fresno": 1530, "\u0120Wyoming": 3547, "\u0120got": 40244, "\u0120trail": 9200, "\u0120Notre": 4786, "\u0120Dame": 5738, "\u0120Cou": 5729, "gars": 1503, "\u0120reb": 7164, "\u0120Penn": 8039, "\u0120tie": 10459, "\u0120Athletic": 9511, "Game": 1890, "BY": 881, "\u0120Hem": 5162, "uli": 4336, "\u0120kickoff": 1129, "\u0120touchdown": 7010, "\u0120receiver": 5264, "\u0120Matt": 13099, "\u0120Gay": 7654, "\u0120caught": 15529, "\u0120lateral": 4483, "\u0120quarterback": 6073, "\u0120Chip": 2061, "\u0120Rodney": 2375, "\u0120Harris": 13373, "yard": 18736, "\u0120Repl": 882, "\u0120passes": 17548, "\u0120junior": 17175, "\u0120lineman": 850, "\u0120Ma": 31651, "anga": 10084, "\u0120burst": 2482, "\u0120sack": 2072, "\u0120Jamal": 1196, "\u0120Willis": 3202, "zone": 2294, "\u0120safety": 21608, "Will": 3101, "\u0120revenge": 6322, "\u0120ensuing": 3669, "\u0120senior": 40412, "\u0120Maurice": 5392, "\u0120Douglas": 13676, "\u012054": 9373, "\u0120Dan": 24016, "ich": 44828, "\u0120capped": 2636, "half": 6302, "\u0120Young": 27582, "\u0120Ot": 8240, "\u0120Sterling": 2370, "\u0120engineered": 2222, "play": 10349, "\u0120conversion": 9035, "gar": 11428, "\u0120punt": 1617, "winning": 8105, "\u0120fare": 2873, "\u0120kicking": 1707, "\u0120Lauder": 706, "\u0120missing": 13925, "\u0120bowl": 4743, "\u0120decade": 15657, "\u0120victories": 6437, "\u01201995": 45041, "\u0120Classic": 7781, "igi": 1862, "\u0120Fern": 3836, "ez": 14620, "\u0120Natasha": 1060, "bank": 6767, "ffer": 1943, "\u0120Gret": 1899, "chen": 7004, "\u0120FI": 3262, "BA": 14487, "Final": 2760, "\u0120ranking": 8433, "\u0120Independent": 12793, "1993": 5515, "\u01201993": 40742, "\u0120remembered": 6509, "\u0120arch": 16638, "\u0120rivals": 6701, "\u0120Nottingham": 5405, "\u0120Forest": 17705, "\u0120Charlie": 9458, "\u0120Palmer": 6737, "\u0120celebrated": 13456, "\u0120dubbed": 6381, "\u0120anniversary": 14460, "\u01201994": 44060, "Italian": 2621, "cia": 3618, "\u0120comes": 28456, "\u0120Coca": 1986, "Cola": 2062, "Charl": 1370, "otte": 4235, "\u0120Motor": 8982, "\u0120Speedway": 3573, "\u0120motors": 3509, "ports": 4555, "\u0120Concord": 3495, "\u0120Charlotte": 8716, "\u0120quad": 5343, "\u0120oval": 3475, "\u0120prestigious": 6995, "\u0120Winston": 3848, "\u0120Brut": 1757, "\u0120Motors": 4752, "\u0120Inc": 26182, "\u0120Den": 9933, "1994": 5690, "95": 17588, "Alex": 3137, "ei": 3573, "\u0120prove": 8684, "\u012023": 66719, "\u0120assists": 9075, "\u0120Alexand": 4341, "\u0120Da": 10362, "Don": 9257, "pre": 8555, "AA": 11927, "\u0120save": 15944, "\u0120(.": 1874, "896": 265, "\u0120shut": 10860, "\u0120Philadelphia": 22262, "\u0120Flyers": 1613, "\u0120Civic": 3332, "\u0120Centre": 29254, "\u0120Sens": 2114, "\u0120slow": 12705, "\u0120slump": 744, "scoring": 1149, "\u0120avoid": 19637, "\u0120NHL": 8920, "\u0120wins": 14300, "strength": 632, "129": 1168, "\u0120Panthers": 3808, "\u0120Canadiens": 1349, "handed": 3871, "\u0120gubernatorial": 1907, "Lt": 468, "\u0120Governor": 31548, "\u0120Sing": 13642, "\u0120frontrunner": 167, "\u0120acting": 26155, "\u0120governor": 22318, "\u0120Casey": 3678, "\u0120underwent": 7790, "\u0120treatments": 3648, "\u01201992": 43229, "\u0120Lynn": 4270, "\u0120Ye": 9668, "\u0120senate": 1910, "\u0120feeling": 8500, "\u0120vulnerable": 5265, "\u0120Baker": 8911, "\u0120older": 42131, "\u0120siph": 888, "oned": 4401, "\u0120labor": 14288, "\u0120viewed": 10977, "\u0120biggest": 13986, "\u0120representative": 15794, "\u0120Dwight": 2581, "\u0120urban": 22599, "\u0120minority": 9241, "\u0120somewhat": 12324, "\u0120surprising": 2352, "\u0120Former": 5000, "\u0120Speaker": 4877, "Donnell": 1894, "\u0120criticized": 15058, "\u0120poorly": 5660, "\u0120campaigns": 9324, "\u0120fail": 4631, "\u0120traction": 2057, "Attorney": 286, "nie": 7922, "\u0120tough": 3861, "\u0120mental": 12217, "\u0120corruption": 8024, "\u0120controversy": 14323, "\u0120Fisher": 6929, "\u0120senator": 3956, "\u0120lieutenant": 11428, "\u0120sought": 21017, "steps": 355, "\u0120gain": 17459, "\u0120Ridge": 8648, "\u0120initially": 40809, "\u0120slowly": 8732, "\u0120backing": 6617, "Prior": 7363, "\u0120job": 30649, "\u0120appraisal": 572, "\u0120battle": 42955, "\u0120contrast": 15320, "\u0120obscure": 2527, "\u0120Congressman": 2360, "\u0120Erie": 3151, "\u0120proved": 20368, "\u0120fundraiser": 1091, "\u0120undercut": 334, "\u0120socially": 3019, "isc": 23334, "\u0120conservative": 10268, "\u0120suburbs": 4890, "\u0120Pittsburgh": 10634, "Ab": 11369, "ortion": 1608, "\u0120key": 32799, "\u0120Peg": 1020, "choice": 1488, "\u0120Barbara": 8188, "afer": 1645, "warm": 898, "\u0120boss": 6428, "\u0120vocal": 18161, "\u0120abortion": 5489, "\u0120revelation": 2177, "\u0120parole": 2079, "inal": 14462, "\u0120McF": 1642, "adden": 1416, "\u0120murders": 5136, "\u0120crime": 19928, "\u0120stance": 4102, "\u0120situation": 24886, "\u0120manner": 13741, "\u0120Willie": 3687, "\u0120incident": 19026, "akis": 2772, "\u0120enthusiasm": 2778, "\u0120turnout": 2346, "\u0120strongh": 774, "rant": 6904, "\u0120Swedish": 18094, "\u0120membership": 13903, "\u0120referendum": 6282, "binding": 1460, "\u0120voter": 3109, "\u012083": 5404, "%,": 12928, "\u012052": 11718, "1995": 6115, "HL": 6700, "\u012051": 11088, "\u0120Grizzlies": 721, "\u0120Turner": 8169, "\u0120Tus": 2647, "can": 10944, "usc": 4043, "\u0120Tat": 4375, "arella": 749, "\u0120Law": 40539, "\u0120Forty": 1561, "\u0120councillors": 2370, "\u0120proportional": 2605, "\u0120Dro": 2147, "\u0120grouped": 2479, "\u0120Hare": 2371, "Ten": 2530, "large": 2745, "\u0120alliances": 1535, "\u0120plurality": 1020, "\u0120Lomb": 4288, "ardy": 1679, "\u0120coalition": 8765, "1996": 6257, "97": 14535, "\u0120Kuwait": 3343, "\u0120Premier": 18531, "\u0120competing": 10582, "\u0120familiar": 7060, "\u0120Plymouth": 5172, "\u0120competed": 19862, "\u0120tiers": 808, "\u012034": 16621, "\u0120Dar": 11632, "lington": 4349, "\u012032": 22370, "\u0120occasions": 10887, "\u0120attendance": 7927, "431": 364, "\u0120bet": 4121, "tered": 3621, "373": 399, "\u0120spectators": 3635, "\u0120disparity": 729, "\u0120fewer": 6750, "\u0120compared": 26122, "mouth": 6696, "\u0120Neil": 6590, "ock": 30108, "\u0120Mau": 3676, "\u0120keeping": 11031, "\u0120leg": 16712, "\u0120Steve": 17045, "\u0120Cherry": 3026, "\u0120stint": 6262, "\u0120Pl": 27347, "\u0120Hodg": 1802, "\u0120progress": 13580, "\u0120expense": 4766, "\u0120Carm": 6755, "ichael": 1183, "\u0120Mat": 19443, "ty": 26715, "\u0120Apple": 10261, "Dar": 1812, "\u0120settle": 6141, "\u0120Gary": 8777, "\u0120midfield": 1893, "\u0120eventually": 66190, "\u0120rhythm": 5106, "\u0120real": 48074, "oring": 9084, "\u0120opportunity": 19541, "\u0120Adrian": 4291, "\u0120Little": 23138, "john": 685, "two": 7762, "\u0120Mickey": 2685, "\u0120touch": 7514, "\u0120let": 15657, "\u0120chance": 19539, "\u0120midway": 1801, "\u0120carved": 6493, "\u0120pitch": 9191, "mate": 4282, "\u0120Steven": 6965, "augh": 5397, "\u0120convert": 5650, "\u0120h": 28597, "asty": 1996, "\u0120clearance": 2526, "\u0120shot": 38372, "\u0120exposed": 10857, "\u0120pay": 31282, "\u0120prof": 4018, "acy": 24149, "\u0120lifting": 2224, "\u0120volley": 728, "\u0120Crosby": 2399, "\u0120proving": 2197, "\u0120formidable": 1558, "\u0120defence": 11651, "\u0120fashioned": 879, "\u0120flick": 459, "\u0120redeem": 876, "\u0120dragged": 1891, "cut": 8993, "\u0120Lead": 2757, "itter": 7690, "\u0120forceful": 613, "\u0120tackles": 7277, "\u0120pivotal": 1746, "\u0120moment": 12858, "\u0120ear": 7500, "nt": 13735, "kick": 1731, "\u0120Mark": 33362, "\u0120Patterson": 2846, "asured": 598, "\u0120firmly": 2765, "\u0120unmarked": 840, "\u0120thwarted": 1037, "\u0120Heath": 5570, "\u0120defensive": 12683, "\u0120colleagues": 8078, "\u0120strikers": 1088, "\u0120Robbie": 1965, "\u0120Blake": 5698, "\u0120Painter": 950, "\u0120committed": 16451, "\u0120search": 21528, "\u0120equal": 17160, "iser": 11119, "attacks": 849, "\u0120decisive": 3852, "\u0120claim": 23669, "\u0120Devon": 5746, "\u0120means": 43112, "\u0120premium": 2505, "\u0120whistle": 1410, "\u0120trophy": 4557, "\u0120par": 26186, "ading": 6443, "\u0120success": 57479, "\u0120commented": 11445, "\u0120experiences": 12738, "\u0120hind": 3669, "rance": 2887, "\u0120tense": 1979, "\u0120booked": 1854, "\u0120holiday": 7289, "\u0120suppose": 835, "\u0120praise": 6343, "\u0120counterpart": 3252, "\u0120commenting": 2451, "iting": 17455, "\u0120financial": 37688, "\u0120worries": 909, "Everyone": 515, "\u0120blow": 5086, "\u0120didn": 17501, "\u0120ace": 1201, "\u0120Unfortunately": 4374, "\u0120someone": 19701, "\u0120equally": 5867, "\u0120optimistic": 1197, "My": 10622, "\u0120think": 21231, "\u0120reclaim": 1577, "\u0120hiatus": 3485, "\u0120disappointment": 2438, "\u0120occasion": 10745, "borough": 12412, "\u0120caucuses": 307, "February": 3587, "\u0120procedure": 7698, "Unlike": 3363, "\u0120caucus": 1327, "\u0120minimum": 11260, "\u0120percent": 30613, "\u0120straw": 1694, "\u0120attending": 11695, "\u0120sometimes": 40882, "\u0120show": 133656, "\u0120dividing": 2064, "\u0120blank": 2114, "\u0120piece": 22124, "\u0120box": 21155, "\u0120poll": 8489, "bound": 10664, "\u0120proportion": 6246, "\u0120counties": 9151, "\u0120precincts": 523, "\u0120delegate": 3829, "\u0120urges": 1132, "\u0120reflect": 8779, "\u0120preference": 3992, "\u0120obligation": 2502, "\u0120Straw": 696, "\u0120Poll": 6108, "\u0120Ames": 1512, ")'": 1078, "\u0120Hilton": 2165, "\u0120Coliseum": 1548, "\u0120primarily": 28215, "\u0120fundraising": 3216, "\u0120paid": 27308, "\u0120price": 18388, "\u0120eligible": 7664, "\u0120Tickets": 518, "\u0120available": 66250, "\u0120blocks": 11439, "\u0120whoever": 949, "\u0120rented": 3717, "Bob": 3065, "\u0120Do": 17209, "\u0120Phil": 17210, "\u0120Gram": 8025, "\u0120Buchanan": 2258, "%),": 5948, "\u0120Alexander": 25184, "\u0120Alan": 11563, "\u0120Key": 7403, "%).": 4943, "1998": 6485, "\u01201998": 50907, "1999": 7356, "2000": 15362, "\u0120Cy": 9500, "Four": 3709, "teen": 3568, "\u0120UEFA": 9122, "\u0120Champions": 10658, "\u0120runners": 6373, "\u0120declare": 3296, "oto": 8312, "\u0120interested": 15960, "\u0120ones": 14759, "Point": 1518, "Ev": 3779, "aph": 11022, "\u0120Kat": 8575, "opia": 1207, "\u0120Lim": 10565, "ass": 37262, "ennis": 1984, "\u0120Eth": 3147, "\u0120Ass": 11510, "\u0120AP": 9157, "OP": 4875, "Head": 2945, "ika": 16112, "kin": 17535, "\u0120Irvine": 2143, "\u0120Drivers": 1047, "Har": 7056, "rent": 6418, "zen": 8184, "\u0120Coul": 2008, "\u0120Construct": 1408, "\u0120108": 3135, "\u0120102": 3808, "\u012057": 8254, "aren": 5977, "\u0120Stewart": 10819, "\u0120testing": 13694, "\u0120sessions": 9861, "\u0120fastest": 5984, "\u0120pairing": 1474, "\u0120Sal": 33707, "\u0120test": 33675, "uge": 4604, "llo": 5986, "ardi": 4423, "\u0120Fior": 490, "\u0120performing": 21446, "\u0120sh": 21474, "akedown": 1021, "\u0120aer": 5850, "odynamic": 2228, "\u0120mapping": 3104, "\u0120RAF": 9106, "\u0120Kem": 3530, "\u0120Arrows": 700, "\u0120electing": 933, "Pract": 578, "\u012009": 1339, "\u0120conditions": 33947, "\u0120ambient": 1706, "Saturday": 766, "\u0120Each": 20701, "\u0120limited": 39078, "\u0120implementation": 8744, "\u0120exclude": 1613, "\u0120wet": 7413, "\u0120isolated": 8552, "\u0120showers": 929, "\u0120ranged": 2490, "\u012059": 8056, "\u0120clin": 1849, "\u0120199": 849, "910": 748, "\u0120dissatisfied": 1246, "\u0120finding": 13347, "\u0120setup": 2140, "\u0120felt": 27708, "\u0120fantastic": 1766, "\u0120faster": 7460, "\u0120worth": 12894, "\u0120fuel": 18218, "\u0120board": 47638, "enth": 2404, "\u0120slower": 3086, "\u0120Zan": 1611, "\u0120lined": 4105, "\u0120sequence": 13714, "\u0120necess": 2334, "itating": 2378, "\u0120aborted": 792, "\u0120lights": 7276, "\u0120jumped": 2818, "\u0120penal": 2102, "ised": 46813, "\u0120abort": 1109, "\u0120trouble": 7292, "\u0120sw": 10866, "erve": 3846, "\u0120sending": 7485, "\u0120Sau": 3336, "\u0120barrel": 4703, "\u0120roll": 7921, "\u0120unin": 2112, "jured": 790, "\u0120fortunate": 1060, "\u0120settled": 24071, "alf": 9552, "acher": 8499, "iche": 6310, "lla": 14438, "\u0120pressuring": 322, "\u0120Whilst": 2326, "\u0120Aless": 2235, "andro": 2775, "\u0120victim": 8948, "tec": 2280, "\u0120stalled": 1650, "\u0120Just": 12155, "\u0120moments": 5664, "\u0120damp": 1978, "\u0120pitted": 1237, "\u0120premature": 1547, "\u0120blew": 1736, "\u0120dried": 2966, "\u0120mechanics": 4083, "\u0120seemingly": 4504, "\u0120confused": 6101, "\u0120tyre": 912, "\u0120mate": 4158, "\u0120wing": 23713, "crew": 1426, "\u0120unprepared": 563, "apping": 3486, "aken": 4842, "fin": 3410, "\u0120dropping": 4603, "\u0120Soon": 9854, "\u0120afterwards": 12171, "\u0120overhe": 1518, "\u0120emerging": 6172, "\u0120battling": 1616, "\u0120impecc": 343, "ably": 10723, "\u0120returning": 24048, "\u0120meaning": 29334, "What": 7718, "\u0120halt": 3176, "stop": 3224, "\u0120vengeance": 1169, "\u0120Scot": 2978, "\u0120stay": 21218, "\u0120w": 36323, "\u0120costly": 2473, "\u0120slid": 604, "\u0120contenders": 1261, "\u0120hopes": 6418, "\u0120ways": 20141, "still": 1551, "also": 14077, "\u0120Herbert": 7119, "\u0120quietly": 2008, "\u0120brake": 2952, "break": 3295, "\u0120spun": 2432, "otion": 4045, "\u0120distressed": 870, "\u0120probable": 2611, "\u0120punct": 2401, "\u0120Further": 8431, "\u0120unpredictable": 1014, "\u0120nature": 32936, "\u0120gear": 7813, "\u0120denying": 1759, "\u0120tears": 2513, "\u0120Vill": 9260, "uve": 1692, "\u0120clutch": 1512, "\u0120robbing": 599, "\u0120BAR": 364, "ever": 6550, "\u0120Behind": 2587, "\u0120contention": 2067, "\u0120holding": 19276, "\u0120cruising": 1289, "\u0120forcing": 7559, "hello": 542, "\u0120everything": 13029, "\u0120Tru": 5333, "\u0120earn": 8552, "\u0120invaluable": 818, "\u0120Spani": 2730, "\u0120Jackie": 3326, "\u0120greater": 25475, "\u0120Brazilian": 9321, "\u0120contender": 1980, "\u0120deciding": 3605, "\u0120extra": 15909, "\u0120letting": 2069, "\u0120Japan": 52692, "\u0120Kazakhstan": 3221, "ais": 10125, "Hur": 1571, "ricane": 716, "ost": 34923, "\u0120Ak": 18812, "air": 36744, "andr": 1621, "ov": 88502, "\u0120Vladimir": 5527, "\u0120Kash": 2120, "tan": 1680, "\u0120Ka": 10529, "agan": 10996, "\u0120Az": 15448, "azy": 1856, "mb": 9429, "ACT": 1080, "umb": 18645, "Australia": 2867, "uckland": 340, "Can": 4591, "\u0120Crus": 2611, "aders": 2881, "ats": 28999, "Northern": 2232, "\u0120Bulls": 3367, "ago": 16863, "Que": 1977, "\u0120Reds": 3224, "Sh": 28996, "arks": 3940, "Storm": 840, "Wa": 1250, "ato": 21429, "\u0120Chiefs": 3725, "War": 5606, "ahs": 2111, "ington": 15462, "\u0120Hurricanes": 1426, "XX": 1321, "\u0120Against": 5097, "\u0120Destiny": 1556, "Gameplay": 3854, "\u0120selects": 1060, "\u0120ratings": 7442, "\u0120power": 96875, "oming": 6301, "\u0120flying": 15309, "\u0120picking": 2834, "\u0120items": 16888, "\u0120spreading": 3939, "\u0120vul": 751, "\u0120bullets": 2257, "iring": 4582, "\u0120lasers": 1155, "direction": 830, "\u0120missiles": 4463, "\u0120button": 3315, "\u0120missile": 6571, "\u0120lock": 4649, "\u0120projectiles": 792, "\u0120smart": 3320, "\u0120bombs": 5432, "\u0120enemies": 8457, "\u0120screen": 19641, "\u0120Smart": 3376, "\u0120yields": 2084, "\u0120charging": 2637, "\u0120bomb": 11824, "\u0120grade": 16660, "\u0120bonus": 6324, "\u0120collected": 17324, "\u0120multiplied": 706, "\u0120gets": 16116, "\u0120ported": 890, "\u0120Game": 20891, "Tap": 422, "\u0120Capcom": 942, "\u0120Classics": 2187, "\u0120Collection": 7516, "\u0120titles": 21237, "being": 3272, "\u0120Next": 6964, "\u0120Generation": 3966, "\u0120clean": 9546, "\u0120animation": 6206, "ile": 40307, "\u0120backgrounds": 2976, "\u0120digit": 2457, "\u0120explosions": 1413, "\u0120pattern": 15042, "\u0120cream": 4324, "\u0120methods": 21249, "\u0120shooters": 644, "\u0120stars": 21410, "\u0120Emmy": 4633, "\u0120Awards": 27248, "Jud": 2634, "gment": 1410, "\u0120242": 690, "\u0120nations": 11346, "\u0120judged": 3186, ".-": 2633, "\u0120TV": 54563, "\u0120executives": 3851, "\u0120distributors": 1415, "\u0120buyers": 2177, "\u0120producers": 11475, "\u0120writers": 16341, "\u0120directors": 11818, "\u0120To": 53567, "\u0120values": 14815, "\u0120judges": 9622, "\u0120consider": 11926, "\u0120execution": 8919, "mony": 1074, "\u0120Arts": 45161, "\u0120Sciences": 17106, "language": 6509, "\u0120nominees": 1792, "\u0120arts": 21588, "\u0120drama": 19361, "\u0120accounted": 3130, "\u0120ceremony": 17908, "\u0120Joseph": 36009, "ates": 54738, "\u0120Warner": 9338, "\u0120Bros": 5869, "\u0120broadcast": 30314, "\u0120web": 13519, "\u0120RA": 1820, "ect": 9998, "GB": 3847, "\u0120Foundation": 31517, "\u0120Directorate": 2296, "\u0120Founder": 1151, "ette": 17801, "\u0120Caval": 7486, "Service": 3929, "Companies": 362, "\u0120Companies": 3075, "\u0120Tracy": 2993, "\u0120Nashville": 6634, "\u0120v": 51692, "\u0120skirm": 2447, "\u0120Mills": 6736, "ins": 58868, "\u0120expedition": 14798, "\u0120Lebanon": 6640, "Nit": 420, "roc": 4008, "aldehyde": 660, "Sy": 3878, "\u0120synthes": 4784, "\u0120diss": 5658, "olving": 1643, "\u0120solution": 12522, "\u0120ac": 7824, "etic": 8894, "hyd": 3556, "ride": 1619, "\u0120acid": 14373, "\u0120adding": 13272, "\u0120sto": 1823, "ichi": 6154, "\u0120nit": 3568, "ield": 5125, "46": 23399, "\u0120theoretical": 5232, "\u0120via": 49842, "ification": 22339, "rate": 5858, "\u0120salt": 9036, "\u00e2": 39425, "\u0124": 59180, "SO": 2723, "\u0126": 24702, "\u0120orth": 3805, "nit": 592, "\u0120compound": 6517, "\u0120para": 1552, "\u0120undes": 499, "ired": 7331, "\u0120prepared": 14998, "ben": 7122, "\u0120acet": 2874, "\u0120cond": 4352, "ensation": 1103, "Us": 3783, "\u0120oxid": 2026, "amic": 2375, "ey": 22335, "Em": 5744, "\u0120synthesis": 4817, "hend": 3152, "Sea": 1947, "\u0120Borough": 7186, "\u0120Liberal": 14904, "\u0120Democrat": 7972, "\u0120Labour": 16395, "\u0120expected": 26498, "\u0120needing": 1802, "\u0120tiny": 3804, "\u0120swing": 3817, "profile": 3246, "\u0120Hague": 2956, "\u0120refugees": 7412, "umping": 1106, "\u0120asylum": 3503, "\u0120seekers": 941, "\u0120detained": 3672, "\u0120entry": 17915, "playing": 3688, "\u0120leaf": 7687, "let": 42344, "\u0120Commission": 37623, "\u0120Racial": 564, "\u0120Equality": 1554, "\u0120bypass": 5813, "\u0120ease": 4220, "\u0120traffic": 24379, "\u0120defended": 9155, "\u0120investing": 1755, "\u0120rises": 4659, "\u0120latest": 8401, "\u0120Essex": 6338, "2001": 8487, "02": 14665, "\u0120Danish": 12331, "\u0120qualification": 6735, "\u0120Championships": 27632, "\u0120Athletics": 5917, "\u0120vault": 4237, "Qual": 1663, "2003": 8970, "\u0120Tamil": 10355, "\u0120Nadu": 3872, "iances": 771, "\u0120frustrations": 367, "aa": 4537, "\u0120AD": 14436, "MK": 927, "\u0120CPI": 842, "IN": 5526, "\u0120INC": 538, "\u0120196": 943, "\u0120ML": 1891, "\u0120shrunk": 591, "\u0120132": 1985, "\u0120117": 2358, "\u0120PM": 5190, "\u0120backed": 6279, "\u0120AI": 3348, "AD": 11139, "ida": 17783, "\u0120Kaz": 6611, "\u0120Alliance": 11564, "DA": 7294, "Const": 1743, "itu": 5238, "ents": 19569, "Source": 1234, "\u0120Election": 3707, "\u0120Hart": 13819, "\u0120Hampshire": 8955, "\u0120boundary": 11400, "\u0120sitting": 8723, "\u0120decide": 8950, "\u0120seek": 11521, "opp": 6000, "osed": 11155, "\u0120wards": 3562, "\u0120Sutton": 3038, "\u0120Od": 9323, "\u0120Archie": 1893, "\u0120Gillespie": 1158, "\u0120des": 21849, "elected": 9262, "\u0120councillor": 2452, "\u0120Stephen": 16671, "anti": 6605, "block": 2175, "\u0120Denis": 2885, "\u0120Got": 6817, "ney": 26922, "\u0120Andrew": 17933, "\u0120Davies": 5289, "\u0120withdrew": 9537, "\u0120ward": 6638, "\u0120Susan": 7210, "\u0120seeded": 1673, "\u0120Round": 9437, "\u0120tw": 5516, "elfth": 3885, "\u0120ele": 3400, "venth": 4766, "\u0120tenth": 6824, "three": 5658, "\u0120advance": 17508, "\u0120mint": 2949, "Super": 4965, "\u0120Six": 11271, "\u0120duration": 5675, "\u0120finals": 11332, "2004": 9478, "\u0120Devils": 2233, "\u0120lockout": 738, "Dev": 2766, "\u0120Lou": 8417, "orie": 2525, "\u0120sat": 9894, "\u0120negotiating": 2048, "\u0120say": 23316, "\u0120breach": 3459, "\u0120unf": 3833, "ruit": 1404, "\u0120talks": 8338, "\u0120hope": 10019, "\u0120salv": 1373, "They": 10617, "\u0120human": 60387, "\u0120try": 20670, "\u0120patience": 950, "__": 59507, "Maybe": 414, "\u0120ourselves": 1801, "\u0120tells": 25418, "\u0120negative": 16636, "\u0120question": 20244, "tom": 584, "orrow": 1636, "\u0120Wednesday": 4460, "\u0120bleak": 701, "\u0120everyone": 11755, "\u0120footing": 769, "\u0120parity": 797, "Meanwhile": 4504, "\u0120stopp": 1159, "\u0120Scott": 25351, "\u0120Anchorage": 1047, "\u0120Alaska": 7611, "ces": 15772, "CH": 6191, "\u0120Val": 21818, "uable": 1550, "\u0120Player": 9970, "\u0120award": 36834, "actions": 2461, "\u0120transactions": 3054, "Farm": 743, "\u0120Albany": 4837, "\u0120Rats": 865, "\u0120affiliate": 7690, "\u0120AHL": 1892, "\u0120playoffs": 8437, "\u0120Veteran": 773, "\u0120Dean": 11807, "\u0120McA": 438, "\u012061": 7275, "\u0120heels": 994, "\u0120hot": 12359, "\u0120rookie": 4665, "\u0120Zach": 2748, "\u0120Par": 31461, "\u0120goalt": 357, "\u0120Cle": 9723, "ensen": 2279, "\u0120Ari": 5601, "\u0120Ah": 8613, "onen": 1332, "\u0120load": 8360, "\u0120evenly": 1385, "\u0120squad": 23876, "\u0120Ab": 34246, "Run": 1608, "\u0120Vice": 16754, "aul": 9368, "governmental": 2254, "\u0120movements": 11805, "going": 2065, "\u0120Vlad": 2742, "zin": 1774, "\u0120prohibited": 5545, "\u0120Instead": 11672, "\u0120outgoing": 1287, "\u0120interview": 26692, "\u0120Resp": 314, "\u0120succeed": 5866, "\u0120appealed": 4859, "\u0120Russian": 50813, "\u0120Putin": 2199, "\u0120KGB": 1200, "\u0120posters": 2666, "\u0120everywhere": 2445, "\u0120Su": 23104, "umi": 6842, "\u0120Dep": 8018, "uties": 2442, "\u0120Russia": 31751, "\u0120singers": 5803, "\u0120Kob": 2814, "zon": 5054, "\u0120deputy": 13074, "adj": 1276, "\u0120warned": 4989, "\u0120might": 36653, "\u0120influence": 36942, "\u0120unite": 1961, "\u0120nominate": 1270, "\u0120Sergei": 1794, "\u0120Bag": 5960, "\u0120Foreign": 16524, "\u0120Affairs": 16924, "amba": 4137, "\u0120mayor": 16882, "\u0120prime": 11522, "\u0120minister": 22736, "\u0120Jer": 3961, "gen": 20491, "However": 12093, "\u0120enter": 18801, "\u0120Gar": 14350, "\u0120factors": 14816, "\u0120Stan": 9873, "\u0120Lak": 2369, "\u0120independently": 6630, "\u0120initiative": 9998, "\u0120register": 6017, "\u0120consulted": 2261, "\u0120registration": 5742, "\u0120residency": 2962, "\u0120requirement": 6678, "\u0120exclusion": 2294, "\u0120Ank": 931, "\u0120Internal": 3115, "\u0120undergo": 4970, "\u0120mandated": 2210, "\u0120constitution": 10680, "\u0120Security": 15894, "\u0120Mikhail": 3276, "\u0120Leon": 8578, "aker": 12130, "\u0120breached": 1113, "\u0120overthrow": 2709, "\u0120denied": 14019, "\u0120initiate": 2072, "\u0120defamation": 1103, "\u0120rejected": 16794, "\u0120proficiency": 1033, "\u0120petition": 9410, "\u0120Supreme": 24045, "\u0120Court": 66635, "rule": 1109, "\u0120perfectly": 2936, "\u0120fluent": 1923, "\u0120contra": 1176, "\u0120Furthermore": 8802, "\u0120resided": 4275, "\u0120documents": 15089, "\u0120witnesses": 5418, "EC": 12470, "\u0120ignored": 4724, "\u0120bas": 6886, "\u0120solely": 5811, "\u0120convened": 2290, "\u0120congress": 4080, "\u0120discuss": 8079, "\u0120addressed": 7523, "\u0120Ast": 9595, "\u0120Smy": 2583, "\u0120Language": 6779, "sei": 1466, "\u0120Kas": 6006, "\u0120upheld": 2803, "\u0120Even": 13108, "\u0120complied": 801, "\u0120testified": 3744, "\u0120excellent": 8314, "\u0120spoken": 9648, "\u0120normal": 19395, "\u0120reading": 16803, "\u0120difficulty": 8422, "\u0120protocol": 3911, "\u0120mysteriously": 710, "\u0120disappeared": 6696, "\u0120draft": 14844, "\u0120tested": 8080, "\u0120threaten": 1908, "\u0120litigation": 2793, "\u0120comply": 3208, "\u0120Federation": 16706, "\u0120Trade": 10640, "\u0120supporting": 18757, "\u0120agreement": 27999, "\u0120projected": 4439, "\u0120unanimous": 3951, "agra": 969, "\u0120branches": 12032, "\u0120wiser": 190, "Vice": 807, "\u0120uphold": 1166, "\u0120enable": 6362, "\u0120begin": 21529, "\u0120table": 15518, "press": 3182, "\u0120ethical": 3022, "\u0120principals": 934, "\u0120demanded": 7608, "\u0120participating": 8062, "\u0120Deputy": 13090, "\u0120._": 3644, "Cor": 5375, "respond": 519, "\u0120bits": 3070, "recorded": 2865, "\u0120lot": 23231, "\u0120Prom": 6096, "\u0120Political": 7720, "\u0120Voters": 716, "\u0120observe": 3649, "aria": 12250, "\u0120expressed": 19249, "\u0120190": 2453, "\u0120polling": 2218, "\u0120Head": 17879, "\u0120Yuri": 1571, "\u0120Nikol": 3418, "akov": 3854, "\u0120violations": 3923, "\u0120outcome": 5334, "\u0120inspected": 1256, "\u0120enforcement": 8202, "\u0120agencies": 11001, "\u0120excerpts": 1006, "\u0120crisis": 14691, "Still": 1382, "\u0120contradictory": 1127, "\u0120decisions": 9524, "\u0120Electoral": 2384, "\u0120businessman": 8088, "\u0120rival": 13443, "Georg": 2417, "Georgia": 1098, "\u0120recognize": 6564, "\u0120cancelled": 8620, "\u0120seized": 7321, "\u0120protocols": 1958, "\u0120prescribed": 2475, "\u0120captured": 28946, "min": 20535, "\u0120appointment": 13474, "ordinary": 1577, "\u0120Sit": 2850, "Taking": 732, "\u0120Presidential": 4802, "\u0120mind": 17048, "\u0120offered": 39965, "\u0120gathered": 8683, "\u0120caf\u00c3\u00a9": 1612, "pm": 6824, "\u0120compromise": 3763, "\u0120dialogue": 6939, "\u0120dissatisfaction": 1240, "\u0120parts": 48836, "raw": 6272, "\u0120meantime": 3103, "\u0120fired": 15443, "\u0120shots": 7153, "\u0120ric": 581, "oche": 3475, "\u0120mort": 3763, "\u0120wounded": 16418, "\u012078": 6720, "\u0120Shak": 3318, "\u0120academic": 25312, "\u0120blamed": 4412, "\u0120celebration": 7522, "\u0120liquor": 2260, "\u0120inside": 29155, "\u0120offices": 19382, "\u0120palace": 10614, "\u0120accompanied": 15875, "\u0120office": 74916, "\u0120planning": 20114, "\u0120anyone": 10902, "\u0120Enough": 925, "\u0120shake": 1238, "ups": 5578, "\u0120friend": 39046, "wards": 19067, "\u0120handed": 7643, "\u0120retreated": 3503, "\u0120opinions": 4683, "\u0120Yak": 3326, "oven": 3859, "ko": 19313, "\u0120spokesman": 3453, "\u0120forcefully": 661, "\u0120seizing": 1045, "\u0120denouncing": 751, "illegal": 376, "\u0120stability": 6219, "These": 7952, "\u0120Organizations": 1308, "Long": 4069, "\u0120consequences": 5898, "\u0120socio": 2194, "\u0120revoke": 457, "hips": 14223, "Democratic": 901, "\u0120Viktor": 1694, "\u0120Albert": 16716, "Poll": 867, "\u0120averaged": 6037, "raising": 1615, "Bush": 758, "387": 434, "692": 266, "466": 317, "194": 689, "vertising": 434, "\u0120visits": 9178, "Neither": 476, "\u0120visited": 23869, "Analysis": 1160, "\u0120opponent": 9207, "\u0120Mississippi": 12740, "\u0120Gore": 3102, "\u0120Clinton": 9415, "\u01202016": 116771, "\u0120Jackson": 22062, "\u0120Monroe": 4380, "\u0120Clark": 13976, "ett": 32997, "\u0120Bradley": 4734, "\u0120Hemp": 864, "stead": 5205, "06": 17068, "HF": 4780, "\u0120Winners": 1509, "ieth": 3208, "1985": 4520, "\u0120Bud": 5705, "\u0120Pod": 3523, "gor": 3948, "\u0120Serbia": 8139, "\u0120Monteneg": 4346, "\u0120Gy": 6736, "TO": 2167, "\u0120defending": 7144, "\u0120Lar": 5000, "\u0120HK": 1937, "\u0120Birmingham": 11038, "\u0120nights": 4875, "ells": 4197, "\u0120Hands": 2058, "\u0120tensions": 3937, "\u0120Caribbean": 8904, "\u0120Asian": 24209, "\u0120communities": 25434, "\u0120spark": 1748, "\u0120riot": 4922, "\u0120gang": 12193, "\u0120rape": 6293, "\u0120teenage": 3808, "\u0120allegation": 1073, "\u0120substant": 882, "iated": 4603, "\u0120rum": 2780, "our": 33457, "\u0120nor": 16089, "urther": 244, "\u0120rumours": 1807, "\u0120asserted": 3996, "\u0120Britain": 35356, "\u0120unlawfully": 331, "\u0120feared": 4320, "\u0120deportation": 1764, "\u0120clashes": 2526, "\u0120committing": 2344, "\u0120targets": 8321, "\u0120Isaiah": 1032, "Sam": 5962, "\u0120Aaron": 5834, "\u0120Pakistani": 4931, "\u0120origin": 22282, "\u0120predominantly": 6589, "\u0120animosity": 694, "\u0120preceded": 3950, "\u0120appears": 34110, "\u0120largely": 27776, "\u0120rivalry": 5397, "\u0120agitation": 1173, "\u0120opposing": 5703, "\u0120criminal": 16739, "\u0120gangs": 1707, "\u0120titled": 27669, "\u0120Who": 9526, "\u0120Nig": 872, "\u0120writer": 34425, "arc": 7369, "\u0120Howe": 2793, "\u0120mutual": 6049, "\u0120racism": 3218, "\u0120Midlands": 2989, "\u0120focus": 28364, "\u0120differences": 13874, "\u0120African": 51500, "\u0120immigrants": 10498, "\u0120inter": 41932, "Asian": 1006, "\u0120appear": 30737, "\u0120centered": 5209, "\u0120prevalence": 1997, "fair": 2266, "\u0120attitudes": 3304, "\u0120unclear": 5978, "\u0120descriptions": 3359, "\u0120dependent": 6850, "\u0120seem": 9663, "\u0120reporting": 8491, "Stop": 1011, "\u0120Jama": 3012, "ican": 7937, "\u0120attempting": 9013, "\u0120shop": 15193, "lift": 1613, "Beaut": 1123, "\u0120Cos": 5306, "metics": 283, "\u0120herself": 20576, "\u0120sexually": 3756, "\u0120exchange": 21582, "\u0120sex": 19810, "\u0120raped": 2285, "\u0120nineteen": 2298, "\u0120Af": 10026, "raid": 1751, "\u0120deported": 2658, "\u0120immigrant": 4593, "\u0120occurring": 5250, "\u0120dealt": 5082, "\u0120appeal": 13205, "\u0120forensic": 1862, "\u0120questioning": 2626, "\u0120individuals": 36557, "\u0120existed": 11877, "Local": 3761, "\u0120pirate": 1975, "\u0120Hot": 17444, "\u012092": 6354, "\u0120DJs": 1360, "Warren": 845, "\u0120discussed": 10696, "\u0120pick": 14288, "\u0120premises": 5691, "\u0120calls": 19553, "\u0120boycot": 626, "ja": 22948, "\u0120Hussein": 2503, "\u012033": 18571, "\u0120Testament": 4940, "\u0120Church": 83733, "\u0120God": 41745, "\u0120erupted": 2308, "\u0120Gang": 6200, "\u0120stabbed": 1747, "\u0120progressed": 4130, "\u0120offences": 1752, "\u0120Riot": 1274, "\u0120lesser": 4993, "\u0120incidents": 5823, "\u0120convicted": 9062, "\u0120ret": 10850, "\u0120acquitted": 2505, "\u0120manslaughter": 984, "\u0120jailed": 2018, "\u0120mob": 4304, "\u0120confronted": 3494, "\u0120crew": 31180, "\u0120firearms": 3035, "\u0120mac": 5873, "het": 10510, "\u0120solidarity": 1878, "\u0120march": 6716, "\u0120unity": 4465, "\u0120graves": 3657, "\u0120Muslim": 19239, "\u0120cemetery": 9435, "rated": 11196, "andals": 870, "\u0120pushed": 8425, "\u0120grave": 8708, "\u0120stones": 7036, "\u0120insulting": 797, "\u0120Muslims": 9494, "Black": 7491, "\u0120Nation": 8508, "\u0120organisation": 13360, "\u0120Dr": 51650, "\u0120Sent": 3073, "bishop": 3976, "Media": 4133, "\u0120coverage": 13537, "\u0120Compl": 1248, "aints": 1320, "\u0120Voice": 5070, "\u0120Black": 53647, "\u0120unch": 917, "enged": 468, "\u0120headlined": 1379, "\u0120teen": 2911, "\").": 17608, "\u0120websites": 4272, "x": 53110, "\u0120chat": 2111, "rooms": 2035, "\u0120reactions": 5525, "arming": 1706, "aki": 14607, "sum": 1781, "tin": 906, "\";": 9562, "\u0120whilst": 12004, "\u0120getting": 17643, "\u0120throats": 274, "\u0120speak": 12615, "\u0120agree": 7723, "\u0120apologised": 725, "absolutely": 451, "\u0120disgusting": 303, "\u0120posted": 12255, "Platform": 417, "Ven": 2283, "stre": 1683, "\u0120campaigned": 3169, "\u0120restructuring": 2308, "\u0120continuation": 3108, "tax": 1088, "free": 8027, "\u0120immigration": 7085, "\u0120jobs": 13503, "ogens": 838, "\u0120Ly": 13349, "ket": 3560, "oft": 1721, "\u0120decreased": 5965, "\u0120Ven": 10607, "Conservative": 714, "\u0120increasingly": 14021, "\u0120Figure": 1539, "ifying": 9699, "\u0120sk": 12906, "\u0120IS": 7083, "\u0120corresponding": 6846, "European": 5230, "\u0120Contin": 1271, "\u0120associations": 6154, "\u0120selected": 38541, "\u0120criteria": 5896, "\u0120Based": 4918, "\u0120discipline": 5393, "\u0120Plus": 3114, "henko": 1139, "\u0120Sl": 17682, "uts": 10392, "kaya": 3375, "iana": 12707, "\u0120Tot": 1674, "\u0120Maxim": 1761, "\u0120Marin": 2263, "\u0120Nav": 7800, "arov": 1855, "\u0120Sus": 6558, "silver": 482, "\u0120Finn": 4554, "\u0120ladies": 3088, "\u0120singles": 16994, "\u0120Series": 24838, "Mexico": 1328, "\u0120Reyn": 1450, "ama": 34778, "\u0120Donald": 10828, "usk": 2950, "\u0120Platform": 1971, "PO": 2194, "\u0120Marshal": 3899, "ac": 95033, "zy": 9307, "ski": 6979, "Pi": 628, "\u0120legislative": 8484, "\u0120economically": 2984, "\u0120favoring": 759, "\u0120integration": 6302, "market": 5839, "\u0120skeptical": 1439, "\u0120Such": 10018, "\u0120Pi": 5670, "icz": 900, "\u0120governing": 5677, "esides": 188, "ign": 22960, "iew": 2570, "\u0120Rel": 5665, "\u0120Mac": 44232, "\u0120Tomas": 1581, "cki": 1969, "\u0120accident": 15375, "\u0120gather": 4667, "\u0120signatures": 2594, "\u0120Arnold": 6261, "erek": 866, "\u0120Gabriel": 6715, "owski": 7334, "\u0120Wald": 6157, "\u0120Marian": 4145, "ual": 13624, "\u0120Rem": 8636, "omon": 2997, "\u0120Maria": 18356, "kowski": 1460, "\u0120grandfather": 11078, "hr": 10064, "acht": 8062, "\u0120affair": 8802, "\u0120drafted": 8606, "\u0120refere": 1369, "ums": 10075, "\u0120approved": 21740, "\u0120access": 44912, "\u0120Switzerland": 14809, "\u0120agreements": 5236, "\u0120arrangement": 9413, "\u0120surrounded": 12800, "\u0120solve": 4659, "Opp": 1530, "onents": 1972, "\u0120Neutral": 757, "\u0120linked": 13909, "\u0120fears": 3597, "\u0120agreeing": 2269, "\u0120bureaucrats": 518, "\u0120Brussels": 5641, "\u012055": 12152, "\u0120undecided": 395, "\u0120ne": 6752, "ared": 7786, "\u0120falling": 10030, "\u0120rejection": 2896, "\u0120encouraging": 4095, "\u0120welcomed": 4251, "\u0120ignore": 1793, "important": 870, "\u0120step": 18457, "EU": 1182, "\u0120relations": 21496, "\u0120Opp": 3034, "\u0120application": 19426, "\u0120labour": 7918, "\u0120newest": 2188, "\u0120harder": 2890, "Registered": 177, "\u0120partnerships": 3242, "Sw": 8446, "itzerland": 632, "\u0120republic": 5259, "sex": 10528, "\u0120couples": 12254, "\u0120Appro": 1201, "val": 14499, "\u0120mean": 12893, "\u0120civil": 31800, "\u0120legally": 5365, "\u0120binding": 6412, "\u0120dissolved": 7771, "\u0120Same": 1224, "\u0120inheritance": 3545, "\u0120pension": 4465, "\u0120obligations": 3070, "\u0120heterosexual": 1558, "\u0120adopt": 5210, "\u0120fertility": 2162, "\u0120homosexual": 2736, "\u0120expect": 3791, "\u0120Registered": 509, "\u0120cant": 7806, "\u0120Geneva": 5626, "\u0120Ne": 30344, "uch": 23088, "tel": 2491, "\u0120Zurich": 2387, "\u0120conservatives": 1353, "\u0120opinion": 14784, "ufficient": 276, "\u0120legal": 38595, "\u0120relationships": 10710, "\u0120Evangel": 5144, "\u012067": 7112, "2006": 11183, "\u0120Ind": 15262, "vert": 5534, "\u0120R\u00c3\u00a9": 3152, "\u0120Li": 18287, "\u0120indoor": 5356, "\u0120Great": 50761, "\u0120championships": 9257, "AAF": 4504, "\u0120athletics": 4147, "\u0120nine": 35547, "\u0120dual": 9263, "\u0120constraints": 3036, "\u0120athletes": 6807, "\u0120totals": 1269, "\u0120sixteen": 6402, "\u0120repeated": 9608, "\u0120edged": 1044, "\u0120venue": 10205, "\u0120host": 30136, "\u0120Meeting": 3172, "\u0120Pas": 6229, "\u0120Calais": 1139, "\u0120FIFA": 9468, "CON": 1078, "ME": 5104, "OL": 4638, "FC": 8911, "\u0120Brazil": 17845, "\u0120Croatia": 6556, "\u0120drew": 12838, "\u0120eventual": 7297, "\u0120Uruguay": 3490, "\u0120Jorge": 3038, "\u0120Foss": 1475, "\u0120Tab": 5872, "\u0120managed": 32719, "1988": 4680, "1990": 9139, "\u0120FIG": 271, "yth": 4589, "mic": 7067, "\u0120Gym": 4196, "astics": 3611, "\u0120competitions": 11244, "\u0120Finnish": 7913, "\u0120skating": 2946, "\u0120annually": 10936, "\u0120disciplines": 3243, "\u0120dancing": 7066, "\u0120Junior": 17593, "iro": 20553, "alia": 10089, "Minor": 900, "ifications": 8023, "\u0120jersey": 2349, "ivity": 7856, "\u0120compilation": 8103, "\u0120crossing": 14401, "\u0120intermediate": 5509, "\u0120sprint": 2797, "\u0120Pa": 12252, "olo": 11402, "\u0120Bett": 1264, "\u0120Comb": 1751, "\u0120110": 7257, "azz": 10877, "zz": 9063, "ishers": 1483, "\u0120Ivan": 7863, "\u0120Bass": 7020, "\u0120Tro": 10295, "fe": 7411, "uga": 2989, "agg": 9944, "\u0120rewarded": 2746, "\u0120riders": 5372, "\u0120rider": 3493, "\u0120escape": 20052, "\u0120kilomet": 2516, "\u0120Christ": 25306, "ophe": 1226, "\u0120Ed": 32176, "\u0120penalty": 11839, "\u0120technical": 18771, "\u0120infring": 917, "ements": 3334, "\u0120Cer": 5815, "\u0120avoiding": 3344, "\u0120penalties": 3943, "\u0120Play": 12353, "mers": 7003, "mith": 3774, "\u0120Ful": 5336, "\u0120borough": 8114, "\u0120apiece": 589, "Official": 1128, "\u0120ja": 1138, "\u0120throw": 7028, "2007": 11760, "\u0120Cardinals": 5546, "\u0120Season": 7334, "favorite": 189, "\u0120Associated": 3700, "\u0120preseason": 2123, "\u0120Going": 1758, "\u0120streak": 5025, "\u0120Georgetown": 3294, "774": 242, "\u0120compiled": 6590, "778": 305, "aches": 5789, "\u0120conclusion": 9585, "\u0120seniors": 1817, "Big": 5698, "\u0120exit": 7063, "\u012076": 7315, "\u0120Pitt": 5196, "NC": 6241, "\u0120bracket": 1368, "\u0120Boise": 1122, "61": 15996, "\u0120Oklahoma": 12523, "\u0120eliminated": 11265, "lost": 1344, "73": 19250, "\u0120Elite": 2754, "\u0120GP": 2784, "\u0120Bahrain": 2794, "ilipp": 1483, "ierre": 1174, "\u0120Glock": 499, "ller": 9262, "\u0120ART": 651, "Next": 1735, "\u0120Safety": 5512, "\u0120mandatory": 3937, "\u0120Bruno": 3200, "\u0120Monaco": 2434, "\u0120Pastor": 1662, "\u0120Mald": 3472, "\u0120comeback": 3673, "\u0120Carroll": 4302, "performing": 672, "izz": 5860, "onia": 11425, "\u0120Ernest": 6248, "\u0120Vis": 8155, "enez": 1656, "lock": 6008, "\u0120Andreas": 2571, "uber": 2753, "\u0120massive": 12082, "unt": 9617, "\u0120concrete": 12645, "\u0120lucky": 1438, "\u0120suffer": 4752, "\u0120injuries": 11613, "\u0120veteran": 7467, "\u0120Pant": 3379, "\u0120Javier": 1498, "\u0120Villa": 6971, "ast": 46532, "emi": 1959, "\u0120feature": 37985, "\u0120amazingly": 206, "\u0120i": 21355, "Sport": 2556, "\u0120soil": 13256, "\u00c3\u00bcr": 13544, "\u0120Sprint": 1640, "\u0120leap": 1447, "gged": 505, "\u0120lots": 4890, "\u0120debris": 3546, "\u0120victorious": 3095, "\u0120Grass": 2869, "\u0120troubles": 2606, "\u0120meanwhile": 2616, "\u0120Spa": 1756, "\u0120collided": 1707, "\u0120Ricardo": 2134, "atti": 2979, "\u0120reconnaissance": 4656, "\u0120gap": 7670, "\u0120couldn": 4869, "\u0120Chand": 5697, "\u0120Che": 23126, "ste": 7373, "\u0120Ty": 10992, "\u0120crucial": 5656, "\u0120intermedi": 889, "\u0120slic": 108, "\u0120window": 14547, "\u0120gaps": 2001, "\u0120Vital": 1374, "\u0120Pet": 16459, "rov": 6455, "\u0120switching": 3283, "\u0120count": 9683, "Texas": 1684, "\u0120vs": 10436, "\u0120permit": 6441, "\u0120res": 9285, "uled": 3416, "\u0120pool": 11306, "\u0120standings": 2680, "\u0120determining": 3653, "\u0120pitching": 2872, "\u0120eligibility": 2216, "Japan": 2104, "\u0120Pirates": 3799, "\u0120Nut": 2287, "\u0120surpass": 2078, "\u0120Phillies": 2251, "\u0120longest": 9143, "\u0120NL": 2233, "\u0120hoping": 4555, "\u0120momentum": 3273, "\u0120batting": 6004, "\u0120Freddy": 1300, "\u0120Sanchez": 1638, "\u0120slug": 1303, "\u0120Jason": 8614, "\u0120Bay": 52021, "\u0120Bucs": 203, "\u0120Atlanta": 12879, "\u0120boost": 3297, "signed": 3315, "\u0120Shawn": 2712, "mas": 5561, "\u0120bolster": 862, "\u0120Ian": 8180, "zel": 4633, "anny": 4586, "Just": 4274, "\u0120CEO": 13533, "\u0120Kevin": 10731, "\u0120McCl": 2878, "\u0120stepping": 1761, "\u0120ample": 1288, "\u0120transition": 10905, "\u0120chapter": 11512, "\u0120Astros": 1730, "rod": 6265, "ome": 19504, "\u0120tumultuous": 589, "\u0120bullpen": 730, "\u0120poor": 30363, "\u0120struggled": 6154, "ily": 9538, "\u0120leads": 16680, "\u0120Torres": 2805, "\u0120stripped": 3405, "\u0120youngster": 718, "apps": 332, "run": 8675, "inning": 1472, "\u0120Padres": 1666, "Star": 10282, "\u0120Break": 2950, "\u0120Poison": 756, "\u0120Wan": 3124, "\u0120Pirate": 966, "azer": 1764, "iner": 10763, "Fans": 273, "Fr": 3760, "\u0120consistent": 7781, "\u0120drafting": 1649, "\u0120ownership": 14775, "\u0120inability": 3230, "\u0120payroll": 969, "\u0120Business": 20688, "\u0120Executive": 16387, "public": 2613, "\u0120walk": 13724, "\u0120stadium": 14030, "\u0120Doc": 2379, "\u0120Ellis": 5086, "emb": 2141, "arrass": 298, "\u0120publicized": 1342, "\u0120acknowledge": 2107, "\u0120existence": 18176, "\u0120Then": 17837, "\u0120periodically": 1949, "\u0120articles": 19497, "\u0120Illustrated": 1951, "\u0120topical": 1306, "\u0120conversation": 5854, "\u0120ESPN": 4975, "\u0120CNN": 3638, "2008": 12314, "\u0120overseas": 9045, "\u0120departments": 7688, "\u0120territories": 10560, "Gu": 7030, "adel": 4203, "\u0120Poly": 10225, "nesia": 1620, "union": 2825, "uing": 2985, "amp": 18461, "\u0120Edu": 3206, "Mis": 1133, "cellaneous": 1013, "r\u00c3\u00a9": 8413, "Pet": 2834, "aque": 1128, "\u0120achieving": 4711, "nat": 1633, "\u0120Level": 3838, "\u0120reach": 28389, "\u0120eliminating": 2860, "\u0120Promotion": 1533, "igue": 2686, "\u0120Chapel": 7964, "aine": 16325, "Hon": 6124, "\u0120Cha": 5551, "TT": 2156, "CO": 6112, "ux": 15696, "\u0120elimination": 4187, "oyer": 1490, "sequ": 1009, "\u0120exploits": 1624, "\u0120accumulate": 1122, "CE": 4270, "ouse": 6104, "IS": 16600, "\u0120Ski": 2408, "\u0120Jump": 1972, "Euro": 1432, "pa": 7981, "\u0120Europa": 3005, "\u0120Victoria": 24047, "\u0120description": 14074, "\u0120Hen": 10019, "\u0120Lund": 3219, "qv": 1162, "\u0120Rangers": 8479, "\u0120Metall": 1485, "urg": 14018, "\u0120Magn": 3523, "aton": 5866, "\u0120Mara": 1280, "ikh": 4433, "hin": 4877, "\u0120Petr": 1600, "\u0120Pru": 392, "cha": 12681, "\u0120Late": 7962, "\u0120Alex": 13383, "igor": 1378, "\u0120plague": 2772, "rit": 15656, "sche": 1438, "\u0120hook": 3635, "ooting": 1470, "\u0120sloppy": 256, "\u0120defenseman": 370, "\u0120blue": 23150, "\u0120goalie": 453, "shoot": 1301, "\u0120move": 45280, "\u0120faked": 606, "\u0120fore": 14627, "\u0120wrap": 974, "\u0120puck": 684, "stretched": 422, "\u0120hear": 8455, "\u0120Trophy": 8499, "dev": 1923, "\u0120Dmit": 1070, "\u0120Kal": 15269, "\u0120Redskins": 2238, "Off": 2535, "\u0120offseason": 1070, "\u0120retirement": 20625, "\u0120Gibbs": 1928, "orn": 22024, "\u0120hired": 20237, "\u0120coordinator": 3660, "\u0120Associate": 4956, "\u0120Coach": 5820, "\u0120Saunders": 2060, "\u0120Assistant": 9529, "\u0120Gregg": 1653, "\u0120Greg": 8715, "ache": 9329, "\u0120Sherman": 4190, "\u0120backs": 2568, "\u0120Titans": 2743, "\u0120departures": 801, "\u0120WR": 2137, "\u0120Lloyd": 8058, "\u0120Bears": 4849, "Mark": 5438, "\u0120Rec": 8443, "\u0120Rick": 8408, "\u0120Randall": 2324, "frey": 2839, "\u0120Koz": 2503, "\u0120Keen": 1416, "erson": 11580, "\u0120Pri": 10826, "uc": 24430, "illo": 9882, "\u0120Omar": 2766, "\u0120Stout": 528, "mire": 804, "\u0120agents": 11342, "\u0120veterans": 4926, "\u0120Bos": 9894, "DT": 1651, "\u0120Derrick": 896, "\u0120Frost": 3048, "OT": 5787, "\u0120additions": 3437, "\u0120conditional": 1511, "round": 10115, "\u0120Vikings": 3033, "asm": 7472, "\u0120Dolphins": 2000, "\u0120cornerback": 845, "Angelo": 1033, "\u0120contract": 58069, "Based": 2878, "\u0120pairs": 7209, "\u0120compulsory": 2888, "\u0120dance": 25952, "ango": 5113, "Dan": 2739, "\u0120Zhang": 5071, "\u0120Judging": 255, "\u0120dancers": 4489, "\u0120injury": 24945, "\u0120knee": 6681, "\u0120Ek": 4207, "ater": 17356, "\u0120Sol": 14403, "ovie": 540, "\u0120bronze": 13923, "\u0120Lys": 1684, "\u0120Jeremy": 3768, "\u0120Abbott": 2828, "2009": 12492, "\u0120Liga": 6213, "Ex": 8642, "change": 2447, "ortun": 2172, "orf": 7963, "stadt": 4685, "\u012004": 1327, "bad": 5442, "\u0120bottom": 15057, "ader": 7661, "\u012007": 1156, "\u0120consequence": 6080, "\u0120Kick": 1879, "acker": 3249, "\u0120Bur": 20764, "\u0120spared": 1683, "den": 19853, "\u0120retracted": 919, "\u0120license": 11709, "\u0120Hol": 14268, "stein": 15091, "\u0120Dortmund": 1412, "iden": 4951, "\u0120Detroit": 13789, "\u0120Wings": 3729, "high": 10198, "\u0120Calgary": 4389, "\u0120Flames": 1382, "\u0120shorth": 147, "October": 4464, "\u0120Premiere": 707, "\u0120Stockholm": 6050, "\u0120opener": 2454, "\u0120Blackhawks": 873, "\u0120Rapids": 2706, "\u0120Griff": 1307, "\u0120Toledo": 3321, "\u0120Wal": 9571, "\u0120Iranian": 8654, "\u0120Vol": 16203, "Unity": 250, "\u0120Georgian": 5848, "\u0120demonstrations": 3950, "osition": 2494, "\u0120demand": 16443, "\u0120Sa": 19224, "ili": 16208, "\u0120Manifest": 1302, "\u0120Unity": 2454, "\u0120Traditional": 2351, "\u0120Future": 6071, "leaders": 873, "\u0120Kak": 2477, "ava": 14166, "vi": 10928, "zig": 5961, "uri": 10281, "\u0120Movement": 10434, "jan": 7263, "\u0120Way": 13454, "\u0120Zur": 631, "\u0120beer": 5564, "ogi": 1815, "\u0120Top": 23200, "founded": 6920, "defense": 1364, "\u0120Ok": 7570, "\u0120Alas": 567, "ania": 14124, "\u0120reservations": 1801, "\u0120manifestations": 975, "van": 11117, "\u0120politician": 17898, "\u0120Bes": 3655, "elia": 2840, "\u0120spokeswoman": 498, "\u0120halted": 2945, "\u0120peaceful": 4353, "wide": 7313, "\u0120resign": 6703, "\u0120stressed": 2667, "\u0120demonstrators": 1263, "\u0120steps": 10283, "independence": 853, "bil": 3307, "isi": 9719, "\u0120concentrating": 1363, "\u0120crush": 1966, "\u0120rallies": 1727, "\u0120Oss": 2645, "\u0120democracy": 6248, "\u0120asking": 8380, "estro": 1829, "\u0120aired": 16250, "\u0120informing": 1647, "\u0120venues": 6628, "\u0120Av": 15085, "lab": 1439, "ari": 43460, "\u0120Avenue": 26494, "Foreign": 1361, "\u0120diplomats": 1590, "\u0120Orthodox": 12322, "\u0120urged": 4955, "\u0120resort": 6785, "\u0120Monitoring": 745, "\u0120oversee": 2487, "\u0120eye": 14367, "\u0120protesters": 4549, "\u0120defender": 3698, "zar": 1983, "\u0120Sub": 24724, "\u0120monitor": 4914, "\u0120willing": 6338, "President": 6060, "\u0120talk": 14654, "\u0120smallest": 3393, "\u0120radical": 8648, "\u0120Mer": 23126, "maximum": 272, "\u0120tolerance": 2733, "\u0120retaliate": 385, "\u0120crews": 4930, "\u0120positioned": 3569, "\u0120courtyard": 3380, "\u0120Up": 15868, "\u0120GMT": 354, "\u0120adhere": 1360, "\u0120deadline": 2592, "\u0120disobedience": 802, "\u0120paraly": 480, "Contin": 1844, "ued": 5754, "\u0120demanding": 4518, "\u0120Mik": 4942, "\u0120religious": 39578, "\u0120camp": 29889, "\u0120pledged": 2587, "\u0120clashed": 1554, "\u0120policemen": 1662, "\u0120Protesters": 277, "\u0120independence": 18479, "\u0120cancel": 2138, "\u0120reiterated": 1085, "\u0120refusal": 3301, "\u0120clash": 2318, "\u0120officer": 37291, "\u0120beaten": 7606, "\u0120plain": 7614, "othes": 884, "\u0120bat": 6735, "\u0120pictures": 9851, "\u0120clothing": 9712, "\u0120cl": 14679, "\u0120provocation": 461, "\u0120streaming": 3321, "Mid": 2536, "\u0120violently": 1384, "\u0120NATO": 5351, "itch": 10125, "\u0120Ratings": 301, "\u0120credit": 14018, "graded": 938, "\u0120instability": 2266, "\u0120Gil": 9896, "auri": 1344, "\u0120standoff": 557, "\u0120Kent": 12901, "uck": 12800, "\u0120Flash": 3540, "\u0120cluster": 3985, "storms": 1099, "central": 2082, "\u0120strengthened": 3219, "\u0120significantly": 14815, "\u0120hail": 879, "\u0120Area": 16259, "\u0120strengthen": 3792, "\u0120torrent": 799, "pour": 458, "cm": 21260, "\u0120Downtown": 3284, "\u0120Jefferson": 7292, "\u0120Clarks": 641, "\u0120hard": 30780, "\u0120depth": 11742, "\u0120Cree": 1595, "\u0120neighborhoods": 4426, "\u0120rendered": 5412, "\u0120imp": 13151, "\u0120lightning": 2614, "Rain": 1328, "\u0120EST": 664, "\u0120saturated": 1074, "\u0120preceding": 4352, "\u0120waters": 12044, "\u0120rec": 15494, "\u0120pools": 2896, "Travel": 877, "\u0120flights": 8977, "\u0120diverted": 2153, "\u0120Northwest": 5981, "\u0120Airlines": 6732, "\u0120flight": 26098, "287": 591, "\u0120traveling": 7652, "\u0120Knox": 4522, "\u0120Minneapolis": 3742, "\u0120turbulence": 831, "\u0120injuring": 1636, "\u0120plane": 12501, "\u0120underground": 11687, "\u0120parking": 7710, "\u0120gar": 3365, "ages": 22921, "\u0120underwater": 3383, "\u0120automobiles": 1766, "ARC": 2004, "\u0120transportation": 11836, "\u0120paralyzed": 901, "\u0120abandoning": 1570, "\u0120routes": 13884, "ways": 18510, "\u0120automobile": 4301, "\u0120accidents": 3005, "\u0120vehicles": 20412, "terson": 769, "\u0120Express": 13916, "264": 874, "\u0120Gene": 5349, "\u0120Snyder": 1859, "\u0120Fre": 13485, "eway": 6494, "265": 794, "\u0120Sur": 14821, "\u0120parked": 1110, "\u0120washed": 2507, "\u0120Additionally": 13102, "\u0120Across": 1345, "\u0120entering": 13294, "\u0120vi": 2414, "uct": 5912, "\u0120blowing": 1535, "hole": 3438, "\u0120dangerous": 9521, "Emergency": 600, "\u0120predicted": 5294, "\u0120ordering": 2875, "\u0120evacuation": 3542, "\u0120homes": 18509, "\u0120responders": 468, "\u0120rescuing": 1144, "\u0120Reports": 2053, "waters": 2824, "\u0120del": 21995, "\u0120emergencies": 945, "\u0120assist": 12406, "\u0120relief": 13359, "Govern": 4374, "\u0120dispatched": 3343, "\u0120boats": 11478, "\u0120resc": 2119, "\u0120Mitch": 2259, "\u0120Daniels": 2834, "\u0120cleanup": 930, "\u0120rescued": 5281, "\u0120Assistance": 1824, "\u0120tens": 3745, "Damage": 357, "\u0120halting": 546, "\u0120tower": 23176, "\u0120stopping": 3892, "\u0120communication": 14515, "DR": 5208, "\u0120makeshift": 992, "\u0120erected": 11599, "\u0120Warning": 1190, "\u0120Thunder": 6232, "\u0120Lightning": 2720, "\u0120apartment": 10998, "borne": 5793, "\u0120neighborhood": 14860, "\u0120consumed": 3780, "\u0120evacuated": 4204, "\u0120campus": 25455, "\u0120university": 37264, "91": 22777, "\u0120donations": 5269, "\u0120sorted": 893, "\u0120basement": 5513, "\u0120computers": 7179, "\u0120stuck": 3378, "lying": 4169, "\u0120Cancer": 4172, "\u0120Society": 59833, "\u0120Churchill": 4903, "\u0120Downs": 2867, "\u0120horse": 22042, "\u0120barn": 4189, "\u0120varying": 5887, "side": 18406, "\u0120horses": 12323, "\u0120Water": 21895, "\u0120submerged": 3684, "\u0120LG": 1044, "&": 33725, "\u0120customers": 11716, "\u0120disrupted": 1973, "\u0120terminals": 1969, "\u0120terminal": 9436, "\u0120powering": 420, "\u0120Energy": 11029, "\u0120customer": 6720, "\u0120Norton": 4034, "\u0120upper": 27540, "\u0120animal": 17498, "\u0120shelters": 2373, "Hundreds": 207, "\u0120Census": 16100, "\u0120Bureau": 18926, "\u012091": 5675, "\u0120Thousands": 1012, "\u0120dollars": 9394, "\u0120calculated": 4056, "\u0120assistance": 14740, "\u0120Bers": 625, "\u0120requested": 10334, "\u0120uninterrupted": 716, "asts": 6851, "2010": 17225, "\u0120Beef": 751, "\u0120Brady": 2745, "USA": 3646, "conference": 864, "Southern": 2134, "\u0120Golden": 17227, "\u0120Eagles": 6218, "\u0120Orlando": 4772, "\u0120sadly": 519, "\u0120memorable": 3209, "\u0120spilled": 600, "backer": 450, "\u0120Mart": 18176, "\u0120waist": 2037, "\u0120tragic": 2551, "\u0120shootout": 1884, "\u0120Tulsa": 2207, "Louis": 4224, "\u0120Strong": 3982, "\u0120Orange": 8930, "\u0120Rutgers": 1854, "\u0120absent": 5423, "\u0120Catal": 3181, "Feature": 261, "\u0120Race": 9152, "\u0120Pic": 6035, "\u0120Barcelona": 7830, "\u0120Frenchman": 986, "\u0120Add": 5675, "\u0120survived": 17291, "\u0120DPR": 252, "\u0120Gi": 9896, "omo": 5542, "\u0120ago": 13868, "\u0120precisely": 3023, "pleting": 496, "\u0120Dani": 1429, "\u0120Engineering": 16013, "aked": 4046, "\u0120fared": 899, "\u0120poles": 2250, "ules": 8499, "\u0120Bian": 2576, "chi": 9982, "\u0120Bird": 7384, "\u0120collide": 416, "\u0120Christian": 46924, "\u0120Viet": 1575, "oris": 2390, "\u0120Both": 29991, "\u0120melee": 711, "\u0120nose": 5543, "\u0120seemed": 9262, "\u0120Brit": 3015, "\u0120stunning": 1238, "\u0120reminiscent": 2992, "\u0120Lewis": 17278, "\u0120Hamilton": 15054, "\u0120haul": 1758, "imer": 4749, "\u0120Less": 4313, "\u0120Gard": 4489, "through": 3861, "\u0120jumping": 3171, "print": 2136, "Fab": 895, "\u0120ar": 19558, "ars": 42742, "\u0120Technology": 20360, "\u0120Rap": 3552, "\u0120fairly": 6467, "\u0120plac": 2359, "\u0120echoed": 1149, "\u0120master": 26169, "\u0120climbing": 4280, "\u0120potentially": 6581, "\u0120challenged": 7667, "ursion": 2104, "\u0120gravel": 2861, "\u0120Oliver": 7695, "\u0120Tur": 11670, "vey": 5244, "\u0120pace": 5318, "operative": 3184, "\u0120frustrated": 2459, "acing": 6333, "\u0120Once": 13989, "\u0120banging": 218, "\u0120sliding": 1636, "\u0120bad": 15914, "\u0120facing": 10840, "\u0120trailing": 2073, "\u0120thirds": 1052, "\u0120pulling": 2694, "\u0120powder": 3741, "\u0120heats": 1345, "\u0120involve": 6031, "Information": 1125, "\u0120screened": 3918, "\u0120Giants": 7241, "\u0120Bravo": 1571, "\u0120shown": 36739, "\u0120Tuesday": 3400, "\u0120episode": 57158, "\u0120IM": 3119, "\u0120Reid": 4510, "\u0120commentators": 2682, "\u0120Dick": 8654, "enson": 3013, "\u0120Colin": 4621, "\u0120Bryce": 940, "2011": 12532, "\u0120Bulldogs": 2625, "Previous": 1245, "\u0120Carlton": 2535, "\u0120AFL": 4736, "\u0120inception": 4062, "\u01201897": 9483, "Former": 3096, "\u0120sponsors": 3692, "\u0120Hyundai": 951, "ection": 2927, "\u0120unchanged": 2504, "\u0120Et": 4601, "ihad": 837, "\u0120expecting": 1921, "\u0120crowds": 3148, "\u0120alignment": 4086, "\u0120Victorian": 9419, "listed": 4073, "Carl": 3383, "79": 21529, "\u012042": 14036, "408": 443, "\u0120surpassed": 2733, "highest": 1807, "\u0120Coll": 10729, "\u0120slogan": 3344, "rett": 5950, "atten": 1516, "\u0120Judd": 1321, "\u0120roles": 23174, "\u0120Simpson": 4884, "capt": 1889, "zzo": 2765, "\u0120Marc": 7691, "\u0120Murphy": 7112, "\u0120Russell": 11717, "\u0120Scotland": 27950, "\u0120Simon": 14914, "\u0120Wiggins": 579, "\u0120Brett": 2744, "\u0120coaching": 9673, "\u0120panel": 11474, "\u0120contracts": 7809, "\u0120assistant": 28421, "\u0120Matthew": 9050, "app": 19854, "\u0120Mid": 16821, "\u0120Harvey": 6447, "ague": 3622, "ilda": 5302, "\u0120Coast": 25072, "\u0120vacant": 4790, "\u0120Richardson": 5052, "\u0120Ess": 5063, "endon": 1360, "\u0120Barker": 2617, "\u0120Hawth": 2011, "\u0120Gavin": 1988, "\u0120Brown": 34042, "\u0120Darren": 2013, "\u0120Luke": 7608, "\u0120Webster": 3446, "\u0120gu": 7930, "sey": 16778, "\u0120sky": 5541, "\u0120navy": 5448, "\u0120trim": 3674, "ming": 14134, "pan": 5613, "\u0120shorts": 2505, "\u0120socks": 929, "\u0120hoop": 601, "Playing": 5409, "\u0120summar": 1074, "ises": 15373, "Brown": 3595, "\u0120Medal": 15387, "\u0120foc": 1211, "ussed": 1184, "catching": 252, "\u0120meant": 21411, "\u0120agency": 15862, "bet": 2835, "\u0120offering": 13876, "\u0120shorter": 6823, "\u0120pun": 3481, "ters": 35616, "\u0120figured": 1068, "\u0120prominently": 3125, "\u0120markets": 12672, "\u0120fuelled": 451, "best": 4401, "\u0120MVP": 3410, "\u0120Book": 22966, "makers": 2927, "avour": 2302, "\u0120Sydney": 26989, "\u0120Pend": 2733, "\u0120Dane": 1318, "\u0120Swan": 4617, "\u0120polled": 1225, "\u0120double": 29736, "\u0120affiliation": 4184, "\u0120reserves": 6380, "\u0120Fo": 2432, "\u0120Oval": 2209, "\u0120preliminary": 5385, "\u0120ladder": 2409, "quarter": 1660, "\u0120Clare": 5564, "\u0120Brock": 3280, "\u0120Mc": 30556, "Lean": 2522, "\u0120Laurie": 1776, "\u0120faire": 706, "\u0120FIR": 229, "\u0120Roller": 1058, "\u0120disputed": 4889, "\u0120Austria": 15571, "\u0120thirteen": 6662, "igo": 6753, "\u0120Sloven": 3497, "cup": 1840, "\u00be": 19053, "\u0120Sto": 2223, "\u0120regulation": 7157, "\u0120arguably": 2129, "2012": 11875, "Credits": 266, "top": 7605, "\u0120protected": 13341, "\u0120Draft": 7926, "\u0120unprotected": 592, "].": 4465, "Deb": 2112, "\u0120picks": 2585, "\u0120owed": 2572, "Rule": 431, "\u0120option": 13109, "\u0120assignments": 2794, "\u0120organizers": 2244, "\u0120guarantees": 1520, "Top": 4152, "\u0120scores": 8021, "Sk": 3114, "\u0120Rost": 2975, "\u00c3\u00a9e": 20766, "\u0120Eric": 12713, "omp": 7587, "\u0120NH": 2996, "\u0120Boxing": 2108, "\u0120Qual": 3160, "\u0120Rio": 10566, "\u0120Janeiro": 3406, "\u0120determination": 3600, "\u0120spots": 7112, "\u0120Summer": 22595, "\u0120Olympics": 20099, "\u0120Cur": 14296, "Round": 1588, "\u0120Robin": 7150, "\u0120Results": 1006, "\u0120Time": 21772, "\u0120Taiwan": 9215, "\u0120cause": 35483, "\u0120escalation": 538, "\u0120Sen": 9844, "Sen": 1228, "\u0120islands": 14174,
[...]
